memory_initialization_radix=16;
memory_initialization_vector=
FFC8,
FFA5,
0001,
FFE1,
001E,
FFCB,
0014,
FFEE,
FFFE,
0007,
002E,
FFE8,
000F,
FFE3,
0007,
001E,
0010,
0022,
FFF9,
001B,
0027,
FFFD,
FFF0,
0033,
0001,
FFF3,
FFF4,
001F,
0021,
0019,
FFD5,
0007,
001B,
FFE9,
001C,
FFE9,
0017,
0015,
0022,
FFF6,
FFDA,
FFF8,
FFD3,
FFE6,
FFF8,
FFD7,
0012,
FFD9,
FFF2,
FFF0,
FFEA,
001F,
000C,
0003,
001D,
001F,
003B,
FFFF,
FFEE,
FFF4,
0001,
0005,
FFCD,
000A,
0001,
000E,
0004,
001B,
FFF8,
FFE6,
0000,
FFF9,
0031,
FFE7,
FFE0,
FFE5,
0012,
0002,
0014,
FFF3,
000F,
FFF5,
0001,
0001,
FFE2,
000C,
FFFC,
FFF5,
FFF5,
FFF8,
FFFE,
0028,
FFE9,
FFE5,
FFE8,
FFE4,
0000,
FFFC,
FFF6,
FFCE,
001F,
0003,
0006,
0008,
FFED,
FFB3,
FFF6,
FFFE,
0018,
FFF1,
000D,
0025,
000F,
FFFD,
0005,
0035,
0000,
FFF0,
0018,
FFFE,
001B,
0030,
FFE1,
FFF8,
0016,
FFEA,
0018,
000A,
0026,
000D,
FFF2,
FFDA,
FFEF,
FFD7,
0007,
001F,
FFFC,
FFE1,
FFF6,
FFFA,
000E,
000B,
0010,
FFCB,
FFD4,
FFD5,
FFED,
000F,
FFFE,
0016,
FFB4,
FFF8,
FFE8,
0023,
000D,
000B,
FFD3,
0019,
FFE2,
001A,
0006,
000A,
0022,
FFD3,
FFF0,
0012,
0005,
FFE4,
FFFD,
FFC4,
0010,
0004,
0001,
FFE0,
0005,
FFDE,
0012,
FFFA,
000E,
0014,
FFFF,
0006,
FFFC,
FFE4,
FFFE,
FFEC,
0004,
0018,
000B,
0029,
0006,
0012,
001E,
001F,
FFFE,
FFE3,
FFFD,
0012,
FFE6,
FFC8,
001A,
0028,
0007,
0021,
FFDE,
002E,
FFE1,
FFEB,
0017,
000B,
0007,
0000,
0019,
FFD1,
0013,
0024,
FFF3,
000D,
0004,
0002,
FFF9,
001C,
0004,
FFF7,
0025,
FFEC,
FFEF,
FFEC,
0015,
0002,
0001,
000C,
0016,
001D,
FFDA,
FFDA,
FFE0,
FFCE,
FFEF,
FFFD,
FFEF,
002C,
001B,
0007,
FFFE,
FFF9,
FFE3,
FFF3,
FFEC,
FFED,
FFDD,
FFD7,
0036,
0020,
0010,
0026,
FFEE,
FFFC,
FFFA,
000D,
002F,
FFF2,
0030,
0011,
002D,
FFF9,
FFFF,
0014,
FFDC,
001A,
FFE7,
FFE7,
FFE5,
0002,
FFF1,
FFFC,
FFF1,
002C,
0021,
FFEE,
FFD3,
001D,
FFDE,
FFEA,
0026,
000F,
001E,
000D,
FFDF,
FFEC,
0010,
0012,
0002,
0010,
0009,
0019,
FFFD,
FFE4,
0015,
FFEB,
001F,
000E,
0026,
0012,
0011,
FFE8,
001C,
FFFC,
FFFD,
FFFB,
000D,
0006,
FFE4,
FFF1,
000A,
001D,
002E,
0008,
0002,
002A,
FFE5,
FFFD,
FFFC,
FFF6,
0003,
FFE7,
FFE4,
001A,
0036,
000E,
0002,
0032,
FFFF,
000A,
FFEF,
002F,
0020,
0028,
0019,
0026,
FFF8,
0024,
0013,
FFF9,
FFF8,
0026,
0024,
000A,
FFDD,
0009,
000E,
FFCD,
000D,
0009,
FFF6,
FFB7,
FFEE,
000C,
FFF4,
FFFE,
FFF9,
FFE0,
001C,
0023,
000B,
FFF9,
FFDC,
0012,
FFE3,
0000,
000D,
FFE7,
FFF7,
FFE4,
FFDE,
FFE6,
001D,
000A,
002A,
FFD2,
001C,
0027,
0025,
FFF2,
0005,
001C,
FFF7,
FFF1,
0024,
FFF4,
FFFD,
FFF4,
FFF1,
FFF0,
FFDA,
0017,
FFE0,
0018,
0000,
0017,
0003,
001A,
FFDB,
000C,
0002,
001F,
0008,
0019,
0005,
002C,
0025,
0027,
FFE7,
0003,
FFED,
0017,
0011,
002D,
FFEB,
000B,
0003,
FFF6,
0009,
FFF9,
FFF6,
FFEE,
FFDD,
000F,
FFEC,
0029,
FFF8,
0017,
0014,
FFE2,
000D,
FFF3,
FFFF,
0017,
FFD9,
FFEF,
FFDD,
FFE8,
FFEB,
0033,
FFEE,
0010,
000B,
001B,
FFDC,
FFFB,
FFDC,
0017,
0026,
FF9A,
0028,
0021,
FFF2,
0016,
FFE4,
0041,
FFFA,
FFF5,
001A,
FFEF,
FFE9,
000B,
0011,
FFFC,
0022,
FFF3,
0015,
0000,
001D,
FFFE,
0030,
000F,
0007,
002C,
0002,
0026,
FFFB,
0000,
FFF6,
0000,
002D,
0013,
0002,
000F,
000E,
0008,
0022,
FFFD,
FFE9,
000C,
0003,
0022,
FFCF,
0008,
0006,
0015,
0011,
0016,
FFF1,
FFD6,
FFF9,
FFF7,
001E,
FFD8,
0009,
FFEF,
FFE2,
0013,
FFFB,
000B,
FFD9,
FFFD,
FFEB,
FFF8,
0022,
001D,
0017,
FFEA,
FFEB,
FFED,
0000,
FFEA,
FFF6,
FFFD,
001F,
FFE7,
0030,
002A,
0005,
FFE7,
0008,
001B,
0004,
FFE8,
0004,
FFDB,
0017,
0000,
FFDB,
FFF0,
FFED,
0009,
0021,
001A,
000E,
000B,
0016,
0027,
001E,
0023,
FFE6,
FFD3,
FFEB,
FFFA,
0000,
FFE7,
FFF1,
FFE9,
0026,
FFE7,
0015,
FFD5,
0000,
FFE4,
FFF3,
FFFC,
FFF8,
0027,
FFEC,
FFF4,
FFFE,
001E,
FFEA,
FFED,
FFFD,
0013,
FFFD,
000A,
0016,
001B,
0023,
FFF7,
FFD7,
FFE4,
FFF5,
0000,
0029,
0028,
000C,
0001,
FFF6,
FFFF,
001F,
000B,
001C,
000C,
0015,
000B,
0002,
0013,
FFE6,
0013,
FFE8,
001D,
FFE2,
FFE8,
0009,
FFE2,
0008,
000C,
FFFA,
FFF5,
FFF3,
FFDC,
000B,
FFEB,
001E,
FFF7,
FFED,
FFEF,
FFEE,
001D,
FFE5,
0008,
001E,
0014,
001D,
001C,
FFFA,
0023,
001F,
FFE0,
FFDC,
0009,
0018,
FFC7,
0002,
FFE0,
000B,
FFF5,
FFF1,
FFCF,
0020,
0025,
FFF3,
0018,
0012,
FFF7,
0003,
0026,
FFF0,
0004,
001C,
FFF5,
FFE4,
0014,
FFEB,
FFE2,
FFF8,
001D,
FFE2,
0017,
FFF7,
FFF9,
FFF5,
FFF8,
FFE7,
001C,
0013,
FFE0,
FFE8,
FFF7,
0018,
FFEC,
001B,
0001,
FFE6,
FFDC,
FFFD,
0016,
000A,
001D,
001C,
FFEB,
FFDB,
FFEE,
0003,
001C,
000C,
0029,
001D,
0001,
0020,
0017,
FFFD,
0029,
FFF5,
FFE4,
0014,
0027,
FFFF,
001A,
FFE5,
0015,
0012,
FFD1,
FFD6,
0005,
001F,
FFED,
000F,
FFE9,
FFD9,
001F,
FFE8,
0012,
0018,
0025,
FFD7,
000E,
FFFF,
001B,
FFF1,
002A,
FFE2,
0008,
002F,
FFED,
FFEC,
FFEC,
0011,
FFF0,
FFFA,
000A,
0016,
FFFE,
FFD9,
002A,
001B,
FFFE,
001D,
000F,
FFE9,
FFEF,
0018,
FFE9,
0011,
FFFE,
FFEC,
FFFC,
FFF1,
FFE3,
FFDF,
FFE3,
FFEB,
FFD9,
0008,
FFE9,
FFE9,
FFE4,
0004,
0010,
FFDC,
0018,
FFFA,
FFEC,
0006,
FFE7,
FFFA,
FFF7,
FFF1,
001B,
000D,
FFF8,
0026,
FFE5,
001A,
0003,
0023,
FFFF,
FFEC,
0022,
0020,
0010,
FFF4,
0012,
0010,
FFDF,
000F,
FFEB,
FFF6,
0005,
0002,
FFE5,
0022,
001B,
000F,
FFF4,
FFED,
0003,
FFEE,
0019,
FFEA,
0023,
0022,
0020,
FFF1,
FFFF,
0021,
FFFD,
FFEA,
002C,
0026,
0002,
0029,
FFF5,
FFFE,
0015,
FFE4,
0011,
0012,
001B,
001E,
0006,
FFEA,
0027,
001E,
FFE0,
FFF1,
001B,
FFEE,
0022,
0024,
FFF8,
FFED,
FFE3,
001D,
000D,
FFF4,
FFDE,
FFF8,
FFEA,
FFFC,
FFED,
0023,
0018,
FFF9,
FFF2,
FFF4,
FFDF,
FFE8,
001A,
FFE7,
002D,
001F,
0029,
0012,
0007,
0006,
FFF7,
FFDE,
FFEF,
0028,
FFE6,
001D,
002A,
0003,
FFF3,
0000,
002B,
FFD3,
0022,
FFF5,
FFE9,
000C,
FFE0,
0001,
001A,
0000,
FFF8,
0011,
FFEA,
0033,
FFE0,
FFFA,
0009,
FFFF,
0015,
0001,
002C,
FFDA,
FFF5,
0018,
0017,
000B,
FFF3,
0009,
000B,
FFF0,
0030,
001B,
000B,
FFF6,
0001,
0020,
FFFA,
0016,
0028,
FFE5,
0024,
0025,
0013,
0028,
001A,
0006,
FFF1,
0002,
0024,
000E,
FFE1,
002B,
FFF4,
FFFF,
FFF3,
FFE7,
FFEC,
0027,
0021,
001F,
001F,
001F,
001A,
FFDF,
FFE9,
0023,
001C,
0006,
0027,
000C,
001D,
001C,
FFFC,
FFE6,
FFF3,
0014,
0028,
001A,
0021,
FFFE,
001E,
0012,
FFFD,
001A,
001E,
0006,
0001,
0018,
FFF0,
0019,
0028,
0023,
FFFE,
001E,
000B,
001D,
0000,
0019,
FFF1,
001C,
FFE0,
FFF7,
0020,
0011,
FFDF,
FFE1,
0023,
FFFB,
0003,
FFF5,
0007,
001D,
002B,
000D,
FFF4,
000A,
FFF9,
0023,
0016,
0013,
001E,
0011,
0015,
001B,
0024,
FFFD,
FFE7,
0025,
0023,
FFF1,
001D,
000E,
FFF8,
0001,
0007,
0001,
FFFF,
0001,
0005,
0023,
0005,
FFDF,
0013,
FFF6,
0009,
FFEE,
000F,
001D,
0028,
0020,
001D,
000D,
0035,
0004,
FFEA,
000F,
FFFD,
001D,
0029,
0006,
0021,
0009,
0007,
FFFA,
001B,
0017,
FFDC,
0002,
FFEF,
FFDA,
FFEC,
FFDD,
FFF5,
000A,
FFE2,
0019,
FFFC,
001C,
001F,
001F,
FFFA,
002F,
FFE8,
FFED,
0018,
0013,
001F,
FFE3,
0008,
FFEB,
001A,
FFEB,
001D,
FFEE,
000F,
0008,
FFEB,
0018,
FFEF,
FFEE,
002F,
FFF2,
FFEC,
FFED,
0017,
FFF1,
0024,
0002,
FFE0,
0016,
FFE6,
000E,
001A,
0027,
000D,
FFE5,
FFF2,
0016,
FFF7,
0009,
0024,
FFF2,
0024,
0007,
002B,
FFFC,
FFE3,
0017,
FFE1,
000A,
FFEC,
FFFF,
0003,
000A,
0020,
0014,
FFF1,
0000,
FFEE,
001B,
FFF2,
FFE5,
0016,
FFF3,
FFF4,
000F,
FFD7,
0000,
FFFB,
0015,
0018,
FFE8,
002A,
000C,
FFFB,
0027,
0036,
FFF4,
000D,
FFFA,
0019,
0023,
FFFE,
0025,
0010,
0000,
FFFB,
FFFD,
FFFA,
0028,
FFF0,
0013,
0025,
0003,
001A,
001A,
0014,
FFE3,
0014,
FFD4,
0007,
0026,
0016,
FFEC,
FFF6,
FFED,
FFFB,
0015,
0023,
000F,
002A,
000D,
0018,
0026,
0005,
FFE0,
FFF8,
0020,
0016,
0029,
0002,
001C,
FFEF,
FFFB,
FFF7,
0025,
0009,
FFF0,
FFDA,
FFFF,
FFED,
001A,
0013,
FFF8,
0024,
0037,
001F,
FFFD,
000A,
FFEC,
0023,
002D,
0001,
FFE0,
FFF3,
001B,
0033,
0020,
FFE7,
0022,
FFE9,
FFE2,
FFE4,
000A,
FFE9,
000F,
FFF5,
FFFA,
000F,
0026,
0003,
001C,
0001,
0015,
0026,
0030,
FFED,
FFDA,
FFFA,
FFE9,
FFEC,
FFF2,
000D,
FFF3,
001B,
0018,
FFF5,
0025,
FFE2,
0022,
0010,
002C,
001C,
FFFE,
0030,
0000,
001D,
FFDB,
0000,
0018,
0029,
FFE5,
0013,
FFE4,
0029,
001D,
0015,
FFFF,
FFF8,
FFEF,
0021,
0014,
FFF3,
001C,
FFF9,
000C,
002C,
0007,
FFFD,
FFFE,
0006,
0002,
FFE3,
0022,
FFEB,
0026,
0015,
FFF3,
FFFE,
FFF1,
000E,
FFEC,
0011,
FFEA,
FFF1,
0021,
FFEF,
0020,
0029,
0051,
FFFF,
0007,
0009,
000E,
FFEF,
001D,
FFFD,
FFE0,
FFEF,
000E,
FFEE,
FFEB,
001E,
FFEC,
002F,
0013,
FFF5,
FFE7,
FFD5,
0012,
0020,
001A,
FFFD,
FFD7,
FFEC,
FFD7,
0014,
0047,
0010,
FFDC,
000C,
0016,
FFF5,
0031,
FFE3,
0000,
0001,
FFF3,
FFFB,
FFFB,
0011,
0000,
FFDE,
FFDD,
000B,
FFD3,
FFFB,
0013,
FFDE,
0004,
001A,
001E,
0000,
0007,
0012,
FFFA,
FFF5,
0040,
0002,
0031,
FFF0,
FFCC,
002C,
FFCC,
001B,
0010,
0014,
FFE9,
0019,
002C,
FFD6,
0065,
FFE6,
FFED,
0014,
0010,
FFF5,
000E,
0005,
001A,
0025,
0001,
002A,
0004,
0016,
FFF5,
000F,
FFFA,
0000,
0006,
0030,
0014,
003E,
FFDB,
FFE8,
0014,
0001,
FFE1,
002A,
000A,
000E,
FFEE,
0052,
FFFA,
FFF6,
FFF3,
0021,
0033,
0020,
FFF6,
002F,
FFF1,
FFEC,
FFF4,
0013,
FFFB,
FFFA,
000D,
FFE3,
FFEE,
0002,
FFF7,
0008,
0021,
FFFF,
FFD5,
FFE9,
FFE0,
FFD9,
000C,
0012,
000B,
001B,
FFED,
FFD2,
0024,
FFEE,
FFF0,
0010,
FFE9,
FFF7,
0013,
0003,
FFF1,
FFF0,
0005,
0001,
001E,
002C,
FFF4,
001D,
0003,
FFD7,
0001,
0018,
FFE0,
002A,
FFF9,
0035,
FFFD,
0024,
FFF9,
0021,
FFEF,
001C,
0017,
FFC8,
0001,
FFFA,
FFCB,
FFE3,
FFF2,
FFF2,
FFFE,
0032,
0011,
FFFE,
000D,
FFF2,
0035,
FFEE,
0008,
0011,
0010,
0010,
FFDD,
FFDD,
FFE0,
001C,
0054,
000A,
001D,
FFD7,
0010,
FFEC,
0006,
0046,
0025,
FFEF,
FFF8,
0013,
0016,
001A,
0033,
FFDF,
FFFC,
0006,
FFF0,
FFEE,
0020,
FFEC,
0005,
0013,
0032,
001D,
FFC1,
0006,
0002,
0029,
000E,
FFEE,
0026,
0010,
0006,
0011,
0023,
FFE9,
0007,
FFF6,
FFEE,
0020,
FFF2,
002E,
FFF6,
FFFA,
0003,
FFE5,
0037,
0002,
FFC1,
FFFA,
0016,
FFF9,
FFEB,
FFEC,
0032,
001C,
FFE5,
000F,
FFFF,
FFE4,
FFE2,
002E,
FFEE,
FFDC,
FFBC,
FFDF,
0024,
0003,
FFF7,
0013,
0016,
001E,
FFFA,
0020,
FFF2,
0010,
002D,
0013,
0024,
0009,
0016,
0021,
FFEE,
0029,
FFE6,
FFE2,
0024,
0009,
001D,
000D,
0011,
FFF3,
FFDC,
FFF8,
0011,
002D,
FFF7,
0029,
0009,
0004,
0000,
FFD8,
FFED,
0005,
FFEE,
FFEA,
FFFF,
FFCB,
0017,
000B,
FFD8,
FFEA,
000A,
000B,
FFF3,
FFE9,
0020,
FFFA,
0002,
0021,
FFF9,
0021,
FFE1,
FFE4,
FFEA,
FFE8,
0014,
FFFD,
FFF0,
0010,
0028,
FFD5,
000B,
0017,
001F,
FFF0,
FFC4,
FFE7,
FFF9,
0020,
002A,
FFDC,
FFDF,
0019,
000F,
0020,
000A,
FFF2,
0017,
0004,
FFF3,
000B,
FFE6,
000B,
FFE4,
FFEC,
FFF7,
000A,
0013,
FFEA,
FFF0,
FFD8,
0029,
002E,
FFE4,
0002,
FFD5,
FFB7,
0002,
0004,
FFE1,
0003,
FFEB,
000F,
0020,
000D,
FFE0,
FFF4,
000F,
FFF5,
FFF0,
FFDE,
0002,
0023,
0008,
FFD8,
FFE6,
001B,
FFED,
0002,
0014,
FFFB,
001B,
0006,
0022,
FFD1,
FFEA,
0025,
0001,
0009,
FFEE,
FFF9,
FFE7,
000C,
FFF7,
FFE1,
0013,
0015,
FFFA,
000E,
0008,
FFEB,
FFC0,
FFF7,
FFE4,
0025,
0009,
FFE0,
001E,
FFF5,
0002,
0002,
000C,
FFF2,
FFFD,
FFE2,
FFDB,
002A,
FFFD,
FFE8,
FFE7,
FFEE,
0022,
0014,
FFFA,
FFF7,
001E,
0000,
FFFF,
FFFF,
001B,
FFE0,
FFE5,
000B,
001C,
FFEE,
0012,
FFEC,
FFEA,
FFF6,
FFE5,
0024,
0025,
FFE8,
0013,
FFE8,
0021,
FFEA,
0032,
FFF3,
0008,
FFF2,
001D,
0017,
001D,
FFCC,
FFD3,
0001,
0006,
FFDA,
FFF4,
0003,
0015,
001E,
0020,
001D,
FFDB,
FFEC,
FFEC,
FFEB,
FFEC,
000C,
0004,
0008,
FFEF,
0023,
FFF3,
0011,
FFEB,
0002,
0008,
0001,
0002,
0012,
0011,
0021,
FFE2,
0022,
000B,
0001,
000E,
001A,
FFF8,
0012,
FFE0,
FFEC,
0013,
FFE0,
0027,
0003,
FFF4,
FFE2,
0008,
0019,
FFE3,
FFFB,
0020,
001B,
FFBD,
FFAE,
FF82,
0018,
FFE2,
FFEC,
003D,
FFB9,
0003,
0001,
0027,
FFE7,
FFDC,
002A,
FFF4,
002D,
FFD9,
FFFC,
0039,
0028,
FFF2,
0017,
0007,
0010,
FFF3,
FFFC,
FFD8,
FFE1,
FFBF,
0022,
0006,
FFFC,
000F,
FFE9,
FFE2,
0014,
0000,
FFFC,
FFF9,
FFF2,
0007,
FFE0,
FFE0,
FFE0,
003F,
0023,
000D,
0010,
FFD5,
FFE3,
0049,
0012,
0022,
FFF5,
FFDC,
002C,
002C,
0007,
002F,
FFF6,
0002,
FFCF,
0010,
FFE3,
0007,
FFE5,
000A,
FFE5,
0015,
FFF8,
0021,
FFD2,
0002,
0022,
FFC3,
0032,
004C,
FFF8,
0020,
FFF1,
FFF5,
FFE9,
FFF2,
FFE0,
000D,
000A,
000B,
FFDB,
0010,
0005,
001F,
0025,
001C,
FFF6,
FFF7,
FFA6,
FFD9,
002C,
FFF7,
FFDA,
FFD8,
000A,
FFF5,
FFF8,
FFD1,
FF92,
FFCE,
FFF3,
FFED,
FFA7,
FFFF,
FFE8,
FFF2,
0021,
0022,
FFF7,
000B,
0000,
002D,
FFD9,
FFE4,
001D,
0002,
FFE4,
0010,
000D,
FFEE,
000D,
0012,
002D,
FFF5,
0004,
FFFF,
FFE2,
FFDF,
FFE8,
0023,
FFE8,
0010,
FFDA,
001E,
FFE6,
FFE6,
FFF5,
0012,
FFE3,
FFD2,
0017,
FFF8,
FFFA,
FFBC,
FFF9,
000B,
FFE3,
FFFD,
000C,
FFF9,
0002,
0028,
002D,
FFEF,
FFD1,
0008,
FFE1,
002C,
FFFF,
FFFB,
003A,
FFF9,
003A,
001D,
0016,
001A,
0030,
FFEC,
FFFB,
FFE8,
FFFE,
0034,
FFFB,
FFF9,
FFF3,
FFE9,
0003,
FFF9,
0002,
0007,
FFD7,
0010,
0002,
0005,
001E,
001F,
FFE2,
0021,
FFF3,
FFE0,
FFCA,
FFE1,
FFF9,
0017,
FFF6,
FFE3,
0007,
0000,
0039,
0012,
0006,
FFF5,
0021,
FFC6,
0020,
001E,
0023,
FFF6,
FFE0,
001E,
000F,
000B,
000C,
0017,
0028,
0011,
FFFD,
FFF7,
0021,
FFF1,
FFC1,
0017,
0004,
0028,
000F,
0008,
0003,
FFF8,
0008,
FFF2,
0022,
002A,
000E,
FF9A,
FFD2,
000C,
0022,
FFD9,
0013,
0028,
000D,
FFF1,
FFEF,
0001,
0006,
0014,
001B,
0007,
0034,
0013,
000A,
0010,
0027,
000F,
FFF2,
002D,
000C,
FFE9,
0002,
0016,
FFE4,
FFD7,
FFF3,
0026,
000C,
0019,
0018,
002B,
002F,
002A,
001E,
001C,
0011,
002B,
FFE9,
0015,
0030,
0014,
0001,
FFEC,
0006,
FFF2,
0012,
FFFA,
0013,
FFED,
FFE8,
FFE4,
0007,
001C,
0019,
FFE2,
0010,
0015,
001A,
FFE8,
FFF6,
FFE3,
0007,
FFE9,
0022,
FFE2,
0009,
000C,
FFFC,
FFD7,
0015,
0024,
000A,
0017,
FFE5,
FFFF,
0001,
0027,
000E,
FFE4,
000F,
0007,
0004,
0015,
0018,
FFFB,
0013,
FFF8,
FFED,
0029,
0012,
0023,
FFE6,
0005,
FFEA,
FFF7,
0026,
FFF4,
0013,
0016,
FFE9,
0021,
FFE5,
0024,
FFFA,
FFE1,
0007,
002D,
0011,
FFF8,
0015,
0017,
FFD0,
FFE3,
FFE3,
0028,
FFEE,
FFF0,
0004,
FFE4,
0009,
001C,
0004,
0001,
FFF1,
FFEA,
0002,
0029,
0010,
000F,
000A,
000A,
0024,
0010,
000E,
000D,
001A,
002D,
FFF9,
FFFC,
0000,
0014,
0026,
FFF5,
0001,
0018,
000F,
0028,
000B,
FFE0,
FFFB,
FFE8,
000C,
FFF3,
FFFC,
0008,
FFEE,
FFF4,
0010,
FFEA,
001B,
FFF5,
0025,
FFDF,
001B,
001D,
001E,
FFDF,
FFFB,
FFE3,
FFE2,
FFE9,
0027,
FFEE,
FFF1,
0006,
0012,
0002,
FFEB,
001A,
0015,
0017,
000F,
0019,
001D,
0021,
002E,
FFE9,
0022,
FFE6,
FFED,
000B,
0022,
FFF5,
0020,
FFE9,
FFEA,
0017,
0010,
FFFB,
FFE0,
0022,
FFEB,
0023,
0015,
FFFB,
0006,
FFDC,
000E,
0006,
FFD9,
FFD6,
001A,
000A,
001C,
FFF8,
FFAC,
FFE3,
FFF8,
002C,
FFFB,
FFF2,
000D,
001A,
001C,
FFF6,
0020,
FFF6,
FFEB,
FFED,
FFF0,
0006,
0025,
0011,
FFF9,
000A,
002B,
FFED,
000A,
FFFE,
0010,
FFEE,
0002,
FFFB,
FFDF,
FFE3,
FFF8,
FFF8,
FFE0,
000E,
FFE8,
FFE2,
001F,
FFEF,
001E,
FFFD,
FFE5,
0030,
FFE2,
FFDE,
FFE6,
001A,
FFDF,
FFFF,
0023,
FFFE,
0029,
FFE2,
001E,
FFC1,
FFA9,
FFE7,
FFEB,
FFFC,
0010,
0002,
FFE6,
FFF3,
0016,
0013,
FFCF,
FFD3,
FFEA,
0003,
FFF3,
FFFC,
0014,
0003,
0013,
FFE4,
0001,
002E,
FFF9,
0016,
002B,
0017,
000A,
0018,
0011,
FFB9,
FFED,
FFF4,
FFFA,
FFEA,
000C,
0025,
001F,
0015,
0002,
FFEC,
0007,
FFD2,
0002,
0004,
FFCF,
001B,
FFE8,
0025,
FFFC,
002E,
0023,
002B,
FFED,
FFFF,
FFF4,
0018,
002C,
0020,
001B,
FFEC,
0005,
FFD7,
0012,
FFE9,
0011,
FFDC,
FFFA,
0032,
FFF4,
002B,
FFE9,
FFFD,
FFC5,
FFB5,
002C,
0016,
001E,
0005,
FFF5,
001C,
0025,
FFF4,
0028,
FFFA,
000B,
FFFC,
FFF0,
FFDB,
FFFA,
FFFC,
0035,
0007,
000C,
0013,
FFE6,
0014,
001F,
000E,
0000,
000C,
000A,
0019,
FFF2,
FFD5,
FFDD,
FFEB,
FFD4,
000B,
002A,
FFFD,
0011,
FFE9,
0006,
000B,
0035,
000E,
0006,
FFEA,
FFE5,
FFE7,
0024,
0016,
0006,
FFEE,
0023,
0005,
FFFE,
001B,
0009,
0026,
FFF6,
FFFB,
FFFD,
000A,
001C,
0039,
0017,
FFD9,
001A,
000F,
FFF2,
0015,
FFD3,
000B,
FFD4,
0019,
FFE9,
0012,
FFEA,
FFD8,
FFD6,
FFED,
002D,
0002,
001C,
FFCF,
FFF2,
0022,
FFF7,
FFDA,
0025,
FFF0,
0000,
FFCB,
0008,
FFFC,
FFE9,
0034,
FFDE,
FFEE,
004E,
FFDD,
0011,
0025,
FFDB,
FFF1,
0008,
FFD5,
0013,
000C,
FFD3,
FFF7,
FFE3,
0029,
001A,
000D,
0029,
0021,
0023,
000F,
FFE5,
000A,
FFDF,
0004,
0024,
001F,
000C,
FFEB,
000F,
000B,
0036,
FFEC,
003B,
FFDD,
0012,
FFEE,
FFD4,
0013,
000A,
FFFB,
FFF7,
001D,
FFE0,
FFE5,
002F,
FFDC,
000F,
FFFC,
FFDB,
0010,
0048,
0003,
FFDE,
0001,
FFEE,
FFF8,
FFDE,
0002,
0021,
FFDB,
FFDE,
FFFA,
0012,
FFFA,
FFF4,
FFFD,
FFD7,
FFE1,
FFDF,
FFBF,
0023,
FFED,
FFFF,
0009,
FFF4,
0014,
001B,
FFFD,
0020,
FFE7,
FFFB,
000B,
0008,
FFD4,
002F,
FFDE,
FFB4,
FFF4,
FFFB,
001B,
0010,
001A,
FFD8,
FFE9,
000E,
0003,
002B,
0005,
FFF8,
0018,
0042,
0019,
001F,
FFFF,
001C,
0015,
0002,
0000,
0008,
0012,
FFE9,
0008,
FFE9,
FFF2,
FFF0,
0013,
FFF7,
000E,
0001,
0013,
FFFF,
0024,
FFEE,
001A,
001C,
FFFB,
FFEC,
001D,
FFDE,
001A,
0001,
FFFE,
0000,
0017,
FFD7,
000B,
FFEF,
FFEC,
FFDA,
0005,
002A,
FFBF,
001E,
0026,
FFFD,
FFFA,
0016,
0005,
FFE2,
FFF8,
0030,
0002,
FFF9,
FFF9,
0023,
0002,
0035,
0001,
0000,
FFDC,
001C,
003A,
001C,
0015,
FFFE,
FFF0,
FFFB,
0022,
001A,
0014,
0036,
FFE9,
FFF5,
FFFD,
FFE7,
0021,
FFF5,
FFE5,
002F,
0008,
FFD1,
0018,
0016,
FFD4,
FFC6,
0015,
FFFC,
0025,
0005,
FFDD,
FFAE,
FFDD,
003E,
FFE7,
FFDF,
001B,
FFEE,
FFF7,
002F,
0034,
0008,
FFF3,
002B,
FFEC,
FFF6,
FFE6,
0008,
0019,
0012,
FFCF,
001B,
000B,
0025,
0019,
0026,
FFE3,
FFFD,
FFF0,
0012,
000E,
0000,
FFF9,
0005,
0018,
001D,
0018,
FFC8,
FFDD,
FFE7,
0030,
FFCE,
0006,
FFFB,
001C,
FFEA,
FFDA,
0022,
FFF7,
0015,
FFFD,
0004,
FFD3,
FFEB,
0006,
FFF8,
FFF7,
FFD6,
0029,
0011,
000D,
002A,
FFEF,
0015,
FFFA,
0006,
0013,
0004,
0001,
0031,
FFF0,
0004,
FFE6,
0006,
FFF2,
0019,
002B,
0003,
0011,
0009,
000A,
0016,
0017,
001E,
FFFE,
0024,
0010,
FFDB,
0008,
0012,
FFF2,
0012,
0002,
FF78,
FFF0,
0012,
FFD2,
0028,
0029,
0007,
FFE0,
001C,
FFF5,
002E,
FFE5,
FFF6,
FFE5,
FFF3,
0020,
FFFC,
FFFE,
FFE0,
0017,
FFDE,
0040,
FFDA,
FFF6,
001F,
0037,
0021,
FFE9,
0008,
0002,
FFF1,
001B,
FFFC,
002C,
002B,
0011,
FFF8,
0007,
000C,
001F,
000C,
0018,
0008,
FFBC,
FFE8,
0030,
003A,
FFE1,
FFFA,
FFEE,
FFD7,
FFDF,
FFFB,
0005,
FFEF,
001B,
FFF2,
0024,
001C,
FFF6,
FFBD,
FFFA,
0003,
0008,
0002,
0005,
FFF2,
002D,
FFE3,
FFFC,
FFE4,
0016,
0007,
000F,
FFFA,
0007,
0023,
0018,
FFF0,
0018,
0007,
0006,
000D,
FFF6,
FFF5,
0011,
000D,
0021,
FFF1,
FFD9,
FFF5,
0018,
FFF6,
FFDD,
0021,
0018,
FFD5,
0002,
001C,
FFE7,
FFFF,
FFEB,
FFE5,
FFF0,
FFE9,
FFED,
FFE0,
0005,
FFDC,
FFFD,
FFED,
002E,
000D,
0023,
FFE3,
FFE8,
FFF8,
0030,
0002,
0026,
FFEC,
001E,
FFE4,
FFE6,
002D,
FFE0,
0017,
002E,
FFEB,
0030,
FFE5,
FFEC,
FFE5,
FFBB,
0007,
FFFA,
001C,
002B,
000E,
0021,
0041,
000E,
0016,
0020,
0018,
0024,
FFCF,
FFE1,
000F,
0017,
FFF8,
FFE2,
001B,
000A,
FFEF,
0011,
000C,
0013,
FFA0,
FFEB,
0016,
002C,
001C,
0003,
FF89,
0000,
FFE0,
000B,
FFF7,
FFF8,
FFE4,
0013,
001E,
FFFB,
002B,
001A,
FFF3,
FFE9,
FFF4,
FFF9,
0000,
0034,
0002,
FFF7,
FFEC,
0022,
FFFC,
FFE6,
0027,
FFF0,
FFCA,
0025,
FFD9,
000A,
0023,
002F,
000B,
000D,
0017,
000C,
0009,
001A,
FFEB,
0006,
000B,
0006,
002D,
0017,
001C,
FFD4,
FFF4,
000D,
0000,
FFDF,
000A,
FFEF,
FFE0,
FFF4,
0023,
FFE0,
FFFD,
0017,
FFD8,
FFEC,
FFF4,
FFF8,
FFF7,
0005,
002B,
000F,
0044,
0013,
0046,
002C,
FFD6,
FFF3,
FFF4,
002D,
FFD9,
001A,
FFE5,
FFCB,
001B,
FFE6,
000B,
0007,
003E,
0020,
FFF5,
002C,
0017,
FFE8,
001C,
FFF4,
FFE5,
0009,
FFCA,
0012,
FFEA,
FFE7,
FFE6,
FFDD,
0043,
000A,
000B,
0016,
0017,
FFED,
FFEF,
0006,
FFF4,
0031,
0004,
FFDF,
FFFD,
FFDC,
FFEB,
0020,
0033,
FFFE,
003F,
0013,
0023,
FFFE,
0015,
0018,
FFBE,
0015,
001A,
FFEE,
FFFA,
0008,
FFF4,
0034,
FFF3,
FFE1,
FFEC,
0019,
0016,
FFD0,
FFDA,
0023,
002C,
002B,
FFFC,
002D,
0006,
FFF7,
FFE0,
FFDF,
FFEC,
0006,
FFE1,
FFE8,
001F,
FFAA,
FFD8,
FFD4,
0024,
FFFE,
FFE6,
000B,
FFFC,
0029,
FFEB,
000C,
FFFE,
FFF6,
0007,
FFF9,
0018,
FFEB,
0016,
0008,
000A,
FFFD,
002C,
001D,
0032,
0019,
000E,
0007,
0005,
FFDD,
FFE9,
0018,
0009,
0020,
FFE6,
0015,
FFFB,
FFF6,
FFD7,
000B,
0001,
FFE0,
FFF8,
FFE4,
FFD7,
0022,
000A,
0034,
0009,
FFF3,
0015,
002C,
0026,
FFEB,
FFD3,
FFFC,
FFF3,
FFCA,
000F,
000E,
FFE6,
FFEB,
001F,
0013,
FFD5,
0019,
000F,
FFE9,
0002,
0019,
001D,
000C,
FFEB,
002F,
0026,
FFE7,
001F,
0002,
FFE7,
FFED,
0006,
0026,
001D,
FFDF,
FFF3,
FFDC,
FFEA,
0011,
FFEA,
000B,
001A,
001A,
FFF7,
000C,
FFEE,
FFE5,
FFC3,
000F,
0050,
FFFD,
FFC4,
FFFA,
FFE8,
0007,
FFDB,
FFF7,
FFD0,
FFC5,
0002,
FFE2,
FFF0,
FFF6,
0003,
0007,
0022,
0024,
FFDB,
FFFF,
002A,
0010,
000C,
0018,
000B,
001E,
0022,
FFFF,
FFF3,
FFF1,
FFFE,
FFE0,
FFE6,
0025,
0016,
0013,
0005,
0024,
0036,
0014,
0017,
001E,
0002,
FFFE,
FFEC,
FFF2,
FFE2,
FFF8,
FFC6,
FFEC,
0022,
FFF2,
001D,
FF95,
0000,
0019,
000D,
0000,
0026,
FFFF,
FFD0,
0027,
FFF9,
FFD5,
FFEE,
FFE9,
FFF9,
0004,
FFF5,
0008,
FFDD,
FFE9,
0018,
001E,
0014,
FFF1,
0058,
FFCE,
0028,
FFD5,
FFDB,
000B,
0002,
FFD8,
FFF6,
FFE5,
FFE0,
0010,
FFE1,
0009,
001E,
FFE5,
FFFB,
FFE2,
0005,
001A,
FFF7,
FFFC,
FFD9,
FFEE,
FFAB,
0008,
FFDD,
FFFD,
0022,
FFEC,
0015,
FFE2,
0031,
0020,
0021,
001A,
FFFE,
FFD9,
0002,
0029,
0028,
0014,
FFDF,
FFF4,
FFF8,
0043,
FFED,
FFE5,
FFF9,
FFF1,
FFFE,
FFFA,
FFF9,
0021,
FFE6,
0012,
000B,
FFEB,
0014,
001C,
FFF9,
0021,
001C,
0001,
0017,
001E,
0000,
FFFE,
FFE8,
000A,
0016,
FFEF,
FFF3,
0006,
0010,
FFC6,
FFEA,
0026,
FFE0,
FFF4,
0012,
FFE8,
002C,
000D,
0018,
002D,
0011,
FFEF,
0006,
FFDD,
003C,
FFE7,
0021,
000F,
0025,
FFE3,
0017,
0003,
0037,
FFF5,
0022,
FFF6,
0016,
0000,
0006,
FFEC,
000B,
0003,
001D,
002A,
001A,
FFE0,
0003,
0008,
FFF0,
002A,
0000,
0008,
000A,
FFF1,
001E,
0003,
FFFF,
FFEE,
FFFC,
FFFA,
0000,
FFF7,
FFFC,
001F,
0014,
001E,
002B,
0015,
FFDE,
FFE7,
FFFD,
0007,
000A,
FFDC,
001A,
FFE3,
0032,
FFE1,
0018,
0028,
0016,
0025,
002A,
001E,
000D,
FFE7,
000B,
FFFA,
FFED,
FFF5,
FFE7,
0037,
FFFE,
0016,
003C,
002E,
0017,
000C,
FFFF,
0000,
0003,
0004,
FFE9,
FFE6,
0013,
000F,
0021,
FFEE,
FFEF,
FFF7,
0037,
0016,
000D,
FFE0,
000C,
001F,
0031,
FFEB,
001C,
0009,
FFEB,
002E,
000C,
FFDF,
FFF7,
0005,
0009,
000A,
FFF0,
0011,
000E,
FFFB,
0009,
001B,
0029,
0001,
0024,
0021,
FFE0,
FFDB,
0039,
0025,
000D,
0005,
000C,
FFF5,
FFE9,
0015,
0024,
FFEA,
0006,
001A,
0007,
001D,
0017,
000C,
FFE3,
001F,
0031,
0020,
FFF9,
000D,
000C,
002A,
0020,
FFE8,
0017,
000E,
001D,
FFF5,
0017,
0013,
0015,
0010,
0036,
0026,
002E,
FFFC,
002B,
0027,
002A,
001D,
FFD3,
FFE0,
FFEB,
FFDD,
FFE1,
0007,
0033,
FFF8,
0019,
0021,
0016,
0007,
001F,
0010,
001C,
0029,
FFE2,
FFDF,
0017,
FFD9,
0012,
0010,
FFDE,
0022,
FFE3,
FFEE,
0018,
0029,
0005,
FFFC,
0011,
FFED,
FFF5,
FFEC,
0007,
FFF9,
0029,
0013,
0003,
0026,
FFF5,
0020,
FFE0,
FFE0,
000F,
0013,
000A,
002C,
000E,
0019,
0001,
FFDA,
FFEB,
FFEB,
0012,
FFEE,
001E,
FFE5,
0000,
0013,
000D,
FFE2,
000E,
FFDB,
0020,
FFF1,
0019,
FFFC,
FFFB,
002C,
FFEE,
FFD3,
FFE7,
FFF0,
001E,
FFF9,
0009,
0000,
FFFE,
FFFE,
0025,
FFE6,
001E,
000F,
FFF3,
0027,
001A,
FFE4,
000C,
0007,
0027,
FFEF,
0016,
000C,
001D,
FFED,
0021,
FFF4,
FFF8,
001F,
FFED,
000B,
FFF0,
0011,
0029,
FFD9,
001F,
FFF5,
FFEF,
FFF8,
0009,
0001,
0018,
000F,
FFEA,
0025,
FFE3,
0009,
0022,
FFF8,
FFE9,
FFF8,
0013,
FFEC,
001F,
0009,
FFE7,
000D,
0007,
0018,
0003,
0003,
FFF0,
FFDD,
0011,
0003,
000A,
FFE5,
FFF8,
FFFB,
FFDE,
0001,
000A,
FFE2,
0025,
0028,
001B,
FFE3,
001D,
000C,
FFF1,
FFE5,
0010,
0023,
0027,
0026,
FFF7,
FFEC,
0018,
FFF9,
0013,
0003,
000F,
0020,
FFFB,
FFF9,
0007,
0004,
FFEF,
0025,
0020,
0019,
FFFF,
FFE6,
000D,
0011,
FFEC,
FFE9,
FFF3,
FFFA,
FFEB,
FFEB,
000B,
0016,
FFF8,
0002,
0019,
FFD8,
0010,
000E,
0019,
001D,
FFEB,
FFE7,
0014,
FFE2,
FFF6,
0000,
0008,
000E,
FFED,
0016,
FFE3,
001C,
000E,
FFD1,
FFED,
FFD8,
FFE5,
FFEE,
0006,
000A,
FFEB,
0013,
0009,
0011,
001E,
0012,
0012,
FFFE,
001A,
001B,
000A,
0026,
FFD6,
0020,
FFF6,
FFE2,
0023,
FFF0,
FFFB,
0016,
001F,
0024,
001E,
FFF9,
FFF6,
0007,
000F,
0007,
0005,
0018,
000B,
0003,
FFFE,
0011,
0029,
002E,
0013,
0009,
000E,
FFDF,
0008,
FFEC,
FFFC,
000D,
FFF5,
FFDF,
0000,
0006,
001D,
0014,
0004,
0018,
FFEF,
0023,
0020,
0017,
FFF0,
0005,
0001,
FFE6,
FFED,
FFEF,
FFD9,
001C,
0017,
FFFD,
FFFD,
FFE1,
FFF2,
001F,
FFFB,
FFE0,
0003,
FFFF,
000B,
001B,
FFFB,
FFF0,
FFE9,
001E,
0017,
FFFA,
FFE7,
001D,
FFF2,
0001,
0006,
FFDD,
FFF5,
0012,
FFF7,
FFFA,
FFE3,
FFFE,
FFE4,
FFDE,
0020,
0006,
001A,
FFFB,
FFE8,
001E,
001B,
FFF2,
0001,
FFE2,
0003,
0004,
FFEC,
0025,
FFF0,
FFF2,
FFFE,
FFEE,
FFF9,
FFF9,
0009,
FFFE,
001F,
001F,
0011,
0020,
FFDB,
FFEC,
FFDD,
0011,
FFFE,
001B,
FFED,
0015,
001C,
FFE2,
FFF1,
0019,
0026,
0012,
FFF4,
0019,
000C,
FFF4,
FFF5,
FFF0,
FFE0,
0006,
FFDC,
FFFE,
0003,
FFF0,
FFFE,
0018,
000D,
0014,
0012,
FFF4,
FFED,
0006,
000F,
FFE6,
0021,
FFEF,
FFE6,
0008,
FFE6,
FFE7,
FFF7,
001B,
000E,
0011,
0006,
001F,
FFEC,
0021,
001F,
FFE7,
FFD8,
001B,
0001,
FFEE,
0002,
FFD1,
001A,
FFEE,
000B,
0006,
0008,
000B,
FFDD,
000F,
0019,
FFFA,
0001,
0014,
001F,
0022,
FFF6,
001A,
0018,
001D,
FFFD,
0019,
FFDB,
FFF8,
0002,
0001,
FFE4,
0000,
0014,
FFE0,
0005,
000B,
FFE6,
0019,
000E,
FFEB,
FFF9,
FFED,
002D,
0010,
FFE5,
FFD8,
FFD7,
FFF3,
0023,
FFFC,
0015,
FFDC,
FFE5,
000A,
FFE3,
FFE4,
0009,
FFF8,
0013,
000E,
FFE6,
FFF3,
FFE1,
0022,
000A,
FFED,
FFFA,
0007,
000A,
0012,
0017,
FFEB,
0006,
FFDE,
0009,
0007,
FFE9,
0010,
0013,
FFE1,
002A,
FFE6,
FFF1,
FFFE,
0024,
0026,
FFDF,
0028,
000D,
FFE0,
000E,
0014,
0020,
0024,
FFF8,
FFEF,
0003,
FFEE,
0008,
0020,
FFE9,
FFFE,
0011,
FFD8,
FFFB,
0026,
0022,
0025,
FFD8,
FFE4,
FFE8,
001C,
FFFF,
FFEA,
FFDE,
0007,
0005,
FFE0,
000E,
FFF8,
001C,
FFD7,
FFDE,
0018,
001C,
FFF2,
FFDF,
FFDA,
FFFD,
0007,
002B,
FFE1,
000E,
FFE3,
0010,
FFE0,
000E,
000C,
001E,
FFE5,
0003,
FFDC,
FFEF,
0014,
FFEB,
FFE3,
0000,
001F,
0010,
FFE2,
FFE1,
FFF9,
0001,
0024,
000D,
FFE2,
FFFD,
FFE2,
FFDA,
FFED,
FFDE,
000E,
0015,
0019,
FFED,
FFEA,
FFEB,
FFF4,
FFE8,
FFDF,
0004,
000A,
0021,
FFE6,
FFEA,
001C,
0020,
001A,
FFF6,
FFCC,
000A,
FFE2,
0022,
001B,
FFED,
FFE5,
FFF2,
FFDB,
0000,
FFE7,
FFED,
001B,
000D,
0010,
0007,
0012,
002A,
0021,
FFF8,
0005,
0009,
0008,
FFD4,
FFF2,
0004,
000F,
001B,
FFE9,
FFEC,
0017,
0016,
001E,
0022,
FFFE,
0020,
FFE2,
FFFE,
FFC3,
FFA4,
FFED,
FFF5,
002E,
FFD8,
0015,
FFFE,
000C,
FFF9,
0003,
0010,
FFE8,
FFE8,
0010,
FFE7,
0019,
FFF4,
FFFD,
0043,
FFE2,
FFF0,
000A,
0011,
FFE2,
0029,
FFF7,
0033,
001D,
000A,
FFD7,
FFC1,
FFEE,
FFF7,
001F,
0009,
0026,
002D,
FFFB,
0005,
FFE4,
000E,
FFF2,
0013,
FFEF,
FFD6,
FFF9,
FFDB,
0004,
0005,
000D,
FFFB,
001F,
FFEC,
0007,
0029,
002C,
0009,
0006,
0003,
FFEA,
FFE0,
000F,
001E,
0012,
000C,
FFE1,
0020,
0035,
0027,
FFF7,
000E,
FFEE,
FFED,
FFF2,
0012,
0008,
002F,
0001,
FFF1,
FFEE,
0026,
FFF1,
002B,
FFEB,
FFD9,
0006,
FFD4,
0023,
0031,
002F,
FFDF,
FFD1,
0039,
FFD6,
FFDD,
0025,
FFDE,
001E,
FFA0,
FFEB,
FFF6,
0026,
FFFC,
000B,
FFA4,
FFFF,
0013,
001D,
FFFF,
0002,
0020,
FFEA,
0023,
FFF5,
0033,
FFEC,
0008,
001D,
0010,
FFF4,
FFD9,
FFE9,
FFF9,
0023,
FFEE,
003B,
0029,
0024,
FFEF,
FFFB,
0007,
FFE8,
FFFE,
0019,
0036,
FFF6,
0010,
0015,
000E,
FFC2,
FFFA,
FFEB,
FFDD,
0011,
000F,
FFE4,
FFDF,
FFE3,
0020,
FFCC,
FFF1,
001A,
FFF1,
FFFF,
FFEE,
FFF9,
FFFB,
FFFE,
FFFB,
0014,
000F,
0002,
0028,
FFD9,
000C,
FFF6,
001A,
FFD1,
FFE9,
FFEE,
0040,
0016,
000C,
0009,
0001,
FFFE,
FFE6,
FFE4,
000B,
FFFF,
FFFB,
FFD5,
FFF7,
0005,
FFDF,
0025,
0047,
002D,
FFF3,
001B,
000A,
FFF7,
000E,
FFD1,
002F,
FFFE,
FFF6,
FFF7,
000D,
FFF9,
001A,
FFEE,
004B,
000E,
0018,
0008,
FFCB,
000D,
0009,
0007,
001A,
0010,
FFD2,
FFF2,
FFE1,
000E,
0004,
FFF4,
FFF5,
000A,
001A,
FFF9,
0001,
FFE7,
0030,
0019,
0015,
001D,
FFE0,
FFFE,
FFFC,
FFDE,
0011,
FFF8,
0024,
000B,
FFD6,
FFDA,
FFE9,
FFE4,
0008,
0005,
001D,
FFE3,
FFFE,
0005,
FFDA,
FFE7,
0030,
0024,
0011,
0000,
0005,
0000,
FFF8,
FFFA,
0014,
0026,
FFD5,
FFDC,
0000,
FFF0,
FFE4,
0009,
FFEE,
FFFB,
0011,
0019,
0023,
000E,
FFFC,
0023,
FFDA,
FFF4,
FFFE,
0022,
0016,
FFF2,
000B,
0015,
FFE2,
FFFE,
FFED,
FFE7,
FFE3,
0034,
FFE0,
0020,
0019,
FFF7,
FFF6,
FFE1,
002C,
FFFB,
0020,
FFEA,
FFF1,
000F,
001A,
FFE8,
FFD9,
0002,
0007,
000D,
0025,
FFEE,
FFDE,
0015,
0003,
FFDF,
FFD4,
0021,
FFE8,
FFDA,
FFFB,
0011,
0008,
FFE0,
FFDD,
001D,
0029,
001F,
FFDC,
000E,
001F,
FFDB,
0003,
FFD3,
FFFA,
0015,
0026,
FFEC,
0020,
FFFF,
001E,
FFF4,
001E,
0001,
FFFB,
FFDF,
0003,
001B,
FFED,
0010,
000F,
0018,
0004,
FFEF,
000F,
FFEE,
FFF1,
FFE8,
0008,
0018,
0010,
001F,
FFED,
0018,
FFEC,
FFE9,
FFFC,
FFEA,
0026,
002B,
FFF0,
0025,
FFFE,
0020,
FFDE,
FFF7,
FFE2,
FFFA,
001A,
FFE3,
0018,
FFDA,
0009,
0006,
000B,
0013,
FFC4,
FFE9,
FFE4,
FFF4,
0019,
0017,
FFE8,
FFE3,
0001,
FFEE,
FFF4,
FFFF,
002A,
0002,
001A,
000C,
FFF0,
0002,
FFFF,
001A,
000B,
000D,
0003,
FFFA,
001B,
0005,
FFF4,
0001,
FFFA,
FFE2,
000F,
0026,
001F,
FFEF,
001E,
001D,
001C,
001D,
FFE7,
001F,
FFFD,
0009,
FFE2,
FFED,
0015,
FFE0,
FFDE,
0018,
FFE4,
FFF6,
0011,
0028,
FFE6,
FFEA,
002D,
FFD7,
0020,
0013,
FFE2,
0014,
0029,
0008,
0037,
FFF8,
FFDD,
FFFD,
0000,
FFF7,
FFF1,
FFF4,
0007,
0016,
005E,
FFF3,
0018,
FFD4,
FFE3,
0006,
FFD3,
0023,
FFDC,
FFDF,
FFCE,
FFDC,
FFEA,
FFE5,
001D,
FFD5,
0004,
FFE0,
FFED,
000A,
FFE8,
FFD7,
FFF1,
000B,
0022,
FFF8,
FFD7,
000F,
FFEA,
FFD3,
FFFE,
FFEF,
FFF3,
002B,
001B,
FFD9,
FFE7,
0009,
000D,
FFCD,
0001,
FFF1,
0006,
FFE8,
FFE9,
000D,
FFDF,
FFFA,
FFE4,
FFF9,
000D,
FFF0,
FFFB,
FFD9,
FFF6,
0016,
0014,
0028,
0024,
000B,
0041,
004C,
FFFF,
FFCD,
FFF0,
FFDA,
002E,
FFD5,
FFF5,
FFF5,
0030,
0005,
FFDE,
000E,
FFDC,
001A,
FFE3,
FFFD,
0004,
0022,
FFE1,
000B,
FFD8,
0032,
001B,
FFEF,
0009,
0000,
FFE5,
0033,
0032,
002A,
0036,
FFE3,
FFFE,
001D,
FFFD,
FFE7,
0010,
0014,
002C,
0035,
000B,
0018,
FFF7,
FFFB,
002B,
000C,
0033,
FFC6,
0008,
FFD0,
0030,
000F,
FFEB,
FFE7,
0003,
001B,
0004,
FFF6,
0013,
FFF2,
0029,
FFE5,
FFE3,
0010,
FFDF,
FFE1,
0015,
FFFA,
FFF9,
FFCD,
001D,
0041,
0015,
FFCF,
0001,
000A,
0024,
FFEE,
FFEA,
FFDE,
0012,
FFF9,
000F,
0015,
0034,
FFE9,
0006,
000E,
FFEA,
002D,
000F,
FFF3,
0022,
0003,
FFD7,
FFEA,
000D,
0003,
FFE7,
000C,
FFF5,
002F,
003F,
0011,
001E,
0033,
000C,
FFF5,
FFFD,
0009,
FFD1,
FFDA,
FFE6,
FFDC,
FFF9,
FFFE,
001F,
0025,
0029,
000A,
0005,
0004,
0022,
0012,
FFF5,
FFF3,
FFE8,
FFF6,
0018,
FFDE,
0022,
001A,
FFE2,
001B,
FFF7,
0015,
FFEB,
000A,
FFF5,
FFFD,
0023,
FFFA,
FFDD,
FFF1,
0019,
000B,
FFFA,
0029,
FFDE,
0015,
FFF1,
0025,
0006,
FFF0,
0005,
FFD6,
001D,
FFE7,
FFE9,
0008,
0039,
001C,
FFEB,
0010,
FFF7,
0009,
FFDC,
0006,
FFD9,
FFE9,
FFB2,
FFF5,
000F,
0004,
FFEB,
FFF9,
000E,
FFD3,
FFFA,
FFF1,
FFDE,
0015,
0012,
FFF9,
FFDD,
FFF3,
FFEC,
001A,
FFEA,
FFCC,
0030,
0010,
001E,
FFF9,
0015,
001C,
FFFE,
FFF9,
FFE5,
FFE2,
FFC0,
001D,
001D,
FFDC,
0007,
FFF4,
FFE8,
001C,
0024,
0002,
000C,
0024,
0018,
FFFB,
FFE7,
FFF0,
FFE1,
FFEE,
FFFD,
0007,
0020,
FFF5,
FFF6,
FFD2,
FFFB,
FFEE,
0003,
0000,
0014,
FFEF,
000A,
FFFD,
0021,
FFE5,
0003,
0017,
0008,
0053,
FFE7,
FFED,
0010,
FFFA,
FFDE,
001B,
0009,
0018,
FFF2,
001F,
000E,
FFF0,
FFE8,
0033,
FFE5,
FFE9,
FFF7,
FFBA,
001A,
FFF4,
0002,
0011,
FFC3,
000C,
0033,
0009,
FFDA,
0020,
FFEC,
FFEF,
0001,
0012,
FFFB,
0027,
0013,
0037,
0013,
FFEA,
003A,
FFC0,
0017,
0008,
001F,
FFD5,
001B,
FFC3,
0009,
FFEB,
FFF0,
FFDA,
FFDB,
000C,
0004,
0001,
FFDA,
001D,
001C,
000C,
0001,
001D,
FFED,
0006,
0008,
FFF9,
0000,
0016,
0021,
FFCD,
0005,
FFED,
000D,
FFBE,
0026,
0018,
FFF6,
001A,
FFDC,
FFC7,
0008,
0008,
FFA1,
FFD0,
FFF6,
FFF7,
FFE6,
FFF7,
0036,
FFE3,
0029,
FFBD,
FFE5,
FFF7,
FFE0,
FFFC,
0008,
0029,
000A,
FFE9,
FFD3,
0007,
003B,
0000,
0011,
FFF3,
000B,
FFE7,
0008,
0001,
0015,
FFEF,
000C,
001F,
0037,
0008,
000E,
FFF3,
003B,
000A,
0007,
FFEA,
FFB1,
FFF8,
0023,
FFFB,
FFF7,
FFEC,
FFF2,
FFD9,
0024,
0018,
FFD0,
FFE2,
0026,
001A,
0003,
FFD0,
000B,
FFF9,
FFF1,
0001,
0016,
0007,
0011,
0004,
0003,
FFF2,
FFF3,
001E,
000A,
0003,
0012,
0032,
0021,
001A,
FFE5,
0004,
FFF5,
0027,
FFB4,
0031,
FFCE,
FFDC,
FFFF,
FFD1,
FFFD,
FF98,
FFF6,
FFE5,
0019,
0000,
FFF9,
0018,
001C,
002B,
0041,
0009,
0010,
001B,
FFF2,
0026,
FFE3,
0007,
001D,
001B,
FFF7,
0032,
000E,
FFE6,
0021,
FFE2,
FFEF,
FFEE,
FFE5,
0003,
000A,
001D,
FFFD,
0005,
0007,
0034,
0008,
FFF5,
FFF1,
0005,
0020,
0007,
0001,
FFDB,
FFEB,
0015,
FFED,
FFF0,
FF84,
FFD2,
0009,
FFFC,
FFF9,
0002,
003C,
000E,
0039,
FFE6,
002F,
0001,
FFE3,
FFEC,
FFDD,
001F,
0009,
FFDD,
0007,
0026,
FFBF,
003D,
FFDC,
FFE7,
FFE3,
0000,
001E,
001A,
FFF4,
0008,
FFAF,
FFDB,
FFD1,
0000,
000A,
FFE4,
FFE6,
FFDA,
0006,
000F,
FFFD,
0013,
FFDF,
0015,
0029,
000F,
0031,
FFCC,
0002,
0027,
FFD2,
FFD7,
FFDD,
FFF6,
0027,
FFF2,
0000,
FFE9,
FFE9,
FFD5,
FFA1,
FFCD,
001C,
0005,
000F,
003A,
0014,
0000,
0025,
001D,
FFD6,
FFD7,
001F,
0029,
003B,
0009,
FFF1,
0005,
0021,
0020,
0003,
FFF2,
FFFF,
FFDC,
0016,
000F,
0014,
0007,
FFEF,
000D,
0003,
0022,
FFF5,
000E,
0019,
FFFB,
FFEB,
0009,
FFDA,
0014,
0003,
0001,
FFF6,
0006,
FFF4,
000D,
0017,
FFF9,
0017,
0038,
001B,
000A,
000D,
FFEC,
0024,
FFF6,
FFD9,
0022,
001B,
FFF5,
FFF6,
FFD4,
000A,
FFE4,
0028,
FFE1,
FFE9,
000E,
0018,
FFE0,
0006,
0002,
FFDD,
FFD6,
FFF9,
0027,
FFF9,
0002,
000C,
0004,
001B,
0016,
000B,
FFD2,
FFE2,
000A,
FFF9,
0022,
001A,
FFFA,
FFEF,
FFF4,
FFFF,
0013,
FFB9,
FFDA,
000E,
FFE9,
FFB0,
0004,
0000,
001D,
FFF0,
000A,
FFB9,
FFDB,
0028,
FFE8,
FFC6,
FFC7,
0002,
FFE7,
0010,
0005,
FFF4,
0029,
000F,
FFF5,
FFD7,
0003,
0014,
0021,
FFF9,
FFEE,
0027,
FFFB,
0018,
001A,
0012,
0009,
FFF3,
FFE2,
000F,
002B,
0028,
0017,
FFF7,
FFF2,
0006,
FFF5,
0023,
0017,
FFD8,
002C,
FFF1,
0003,
FFDD,
000D,
FFF4,
FFBF,
0015,
FFF5,
FFFF,
FFDD,
0026,
0021,
FFD7,
0002,
0013,
0016,
FFFB,
0008,
FFF5,
FFE1,
FFFB,
000C,
0008,
FFD9,
0035,
FFF6,
000A,
0019,
0033,
000E,
FFDE,
0014,
000E,
000E,
0003,
FFEA,
0017,
FFFA,
FFD8,
001D,
FFD9,
0025,
000E,
FFEA,
FFE7,
FFF1,
FFEA,
FFD9,
FFE7,
0021,
0001,
0016,
FFA6,
FFF0,
FFE7,
FFF0,
FFFA,
FFE2,
0040,
FFD6,
FFE1,
0013,
002A,
FFD5,
001A,
FFE0,
FFF5,
002F,
FFF4,
FFF9,
FFEA,
FFED,
000F,
000E,
0011,
002A,
0004,
0000,
0015,
0010,
0033,
FFE1,
FFCC,
0008,
0021,
002E,
FFEC,
FFF6,
001B,
0024,
FFF8,
001C,
0008,
0015,
FFFB,
FFF6,
FFE7,
0015,
000E,
FFED,
001D,
FFEF,
0023,
000D,
FFF3,
0013,
FFE5,
FFE7,
FFE5,
FFE8,
0032,
FFA5,
FFDD,
FFE3,
FFF5,
002E,
0020,
0037,
0009,
FFF4,
FFE2,
FFFF,
0025,
003E,
FFF0,
001D,
0040,
0018,
0001,
FFEB,
000C,
FFF9,
FFF4,
000C,
0009,
0016,
0036,
FFD2,
000E,
FFE5,
FFF0,
FFED,
0008,
FFFE,
0002,
FFFE,
0013,
FFE9,
FFFF,
0024,
0002,
0021,
0022,
0028,
0015,
0028,
0012,
000A,
0029,
FFFF,
0002,
FFFE,
000E,
0024,
000E,
000C,
FFF6,
000B,
FFF4,
0027,
0028,
FFE9,
0024,
FFF3,
FFEB,
000F,
002B,
FFF7,
FFE3,
001E,
001D,
0016,
0002,
0005,
000B,
FFE3,
0002,
0057,
0015,
FFE9,
FFFA,
FFF7,
0007,
FFF6,
001C,
0005,
FFF2,
FFDC,
0012,
0010,
FFF1,
0001,
FFF1,
FFE2,
FFF6,
FFF4,
FFE5,
FFE4,
000D,
FFDF,
FFDA,
0018,
FFD6,
FFE6,
FFEA,
FFF3,
FFEA,
0012,
0017,
0001,
FFF4,
FFBE,
FFF5,
0023,
0029,
002A,
0000,
003B,
0011,
FFF9,
FFE3,
FFE3,
FFE5,
001A,
FFFB,
FFEC,
0007,
0007,
0010,
0022,
000B,
FFF2,
FFD5,
0011,
0001,
FFF9,
FFFF,
001B,
000D,
FFEA,
FFF6,
FFF3,
FFE4,
FFEE,
0005,
000E,
FFD7,
000D,
FFE0,
0026,
FFEA,
FFD7,
0009,
FFFA,
FFF8,
FFDE,
000C,
FFD1,
FFDE,
002F,
0011,
001F,
FFE0,
000A,
0003,
FFDF,
FFF0,
000A,
0018,
FFF4,
001B,
FFDD,
FFFB,
0011,
0021,
0015,
FFFA,
FFF9,
FFD9,
0022,
0026,
FFFE,
FFEE,
002D,
002C,
FFEA,
FFFA,
FFFA,
0038,
0016,
FFDE,
FFF3,
FFFB,
0008,
001F,
000F,
FFD1,
0006,
FFDF,
0014,
0017,
FFDF,
FFFA,
0027,
0040,
002D,
001D,
FFFB,
0019,
FFFD,
FFEF,
0008,
0019,
001B,
0022,
FFE7,
0029,
0012,
FFD6,
0021,
0019,
0001,
0017,
0020,
FFE5,
001F,
FFEF,
002A,
FFDF,
001A,
FFF7,
0022,
FFF4,
000A,
0032,
001A,
0023,
002C,
FFFF,
FFD9,
FFFC,
FFCD,
FFE4,
001D,
003B,
0013,
0026,
0025,
0013,
0015,
FFEE,
FFF1,
0014,
FFF3,
0016,
000D,
0026,
FFD3,
FFC6,
FFC1,
FFE0,
000F,
0016,
0048,
0006,
002F,
000B,
FFEF,
001A,
0017,
0008,
FFF4,
001A,
FFDB,
FFE7,
0008,
0016,
0023,
0017,
0008,
FFFF,
FFE9,
003B,
0003,
002D,
0019,
FFEB,
FFEA,
FFFA,
FFEB,
FFF7,
0002,
FFD8,
002F,
0005,
0019,
FFFD,
000D,
FFE8,
FFC7,
FFCC,
0000,
FFF4,
FFE9,
0008,
0005,
FFFF,
0022,
FFE5,
FFEA,
0003,
FFFC,
0024,
0008,
FFFC,
FFED,
FFE9,
0015,
0013,
0016,
FFEF,
FFF5,
FFF1,
FFD5,
0013,
0007,
000F,
0019,
FFF3,
FFFF,
FFEE,
FFE3,
FFE9,
003B,
0029,
000F,
0021,
0004,
0001,
FFEC,
FFFD,
FFF3,
0026,
FFE0,
0009,
FFFE,
0013,
FFF1,
FFF3,
000C,
FFF8,
FFF6,
FFFB,
FFE0,
003E,
FFE7,
FFF3,
000B,
000C,
0009,
0006,
FFD3,
FF75,
0012,
FFE6,
0004,
0017,
000B,
FFF3,
FFF4,
0024,
FFEF,
001B,
0016,
FFFC,
0020,
FFDE,
0001,
0021,
FFF1,
FFF7,
0001,
FFEE,
FFE0,
FFE7,
FFE5,
000E,
FFF0,
FFEC,
0029,
FFE6,
002A,
0034,
FFF9,
FFDC,
FFF1,
0016,
001B,
FFE5,
002F,
FFFF,
FFEC,
FFE6,
0008,
0002,
FFDD,
FFFF,
FFC8,
0005,
0000,
0008,
001D,
002A,
FFE1,
0004,
0004,
0005,
0010,
001B,
FFF0,
FFF0,
FFE4,
0015,
FFF3,
FFFC,
000E,
FFDA,
002E,
0039,
0027,
0035,
0008,
FFD9,
002A,
0004,
0010,
001D,
001C,
001D,
0004,
FFE9,
FFE8,
0003,
0009,
0009,
001F,
FFEC,
0001,
FFF5,
0009,
0019,
FFF5,
001F,
0012,
001B,
FFE6,
FFDD,
FFE4,
0018,
0006,
001B,
FFD6,
0008,
FFEA,
001B,
FFF7,
0027,
FFF1,
FFED,
0029,
0014,
FFDE,
002C,
0016,
0002,
0030,
001B,
0020,
FFF9,
FFEB,
002D,
000E,
0007,
0000,
FFF4,
FFF1,
002F,
0006,
001A,
0029,
FFFE,
FFE7,
0008,
FFDC,
0000,
0000,
FFE9,
FFC4,
FFD0,
0002,
FFE9,
000A,
FFF0,
001B,
FFFE,
FFD5,
0025,
0019,
FFD7,
0014,
0013,
0013,
FFEA,
006A,
0033,
0070,
0003,
0004,
0009,
FFDB,
001C,
FFC4,
0024,
FFF4,
0016,
FFFD,
FFCB,
0006,
FFF8,
002F,
0021,
FFEB,
0024,
0019,
FFFA,
FFD6,
FFDE,
001A,
FFDD,
000A,
000B,
001F,
0013,
FFF4,
FFFF,
0008,
0019,
0009,
FFED,
000F,
FFF2,
000F,
0007,
FFDD,
0017,
0017,
0040,
FFDE,
FFE8,
FFF8,
0007,
FFF6,
001A,
FFEE,
FFE0,
FFE3,
0014,
0022,
FFE8,
FFE2,
0025,
0005,
000F,
FFFB,
0009,
FFFA,
FFEB,
0020,
FFD6,
000F,
FFE8,
FFFF,
FFF9,
FFDD,
0007,
FFEF,
000A,
002F,
FFC0,
FFC1,
FFE7,
FFDC,
FFE8,
FFFE,
FFE5,
FFF3,
0026,
FFF7,
FFDA,
002F,
001F,
FFF9,
FFCB,
FFEA,
000C,
FFE8,
0011,
FFEA,
001D,
0009,
FFFF,
FFEE,
FFF7,
FFE0,
FFF1,
0004,
0025,
FFFD,
002B,
0000,
FFE4,
FFFD,
003C,
0036,
0014,
0019,
FFE2,
FFE1,
0025,
000E,
001A,
0018,
000C,
0017,
0001,
FFEE,
000D,
0026,
001B,
FFD8,
FFD4,
000D,
FFDB,
FFE3,
0023,
FFE5,
0015,
FFEC,
FFDE,
FFEF,
0031,
000A,
002E,
0005,
FFF0,
0028,
0000,
FFFF,
001B,
0006,
FFFB,
FFEC,
0018,
0046,
FFE8,
000C,
001C,
001F,
0019,
FFFB,
FFE8,
0014,
FFD2,
0019,
FFFB,
FFEB,
FFF5,
000F,
FFE3,
FFF3,
FFD0,
0033,
FFCD,
0000,
FFEC,
0000,
FFD6,
0017,
0021,
FFFD,
FFE4,
FFE6,
0002,
000A,
002D,
0014,
0012,
FFF9,
0012,
FFFB,
FFF0,
0021,
0015,
0025,
FFF3,
FFC3,
0022,
001C,
0023,
002D,
0071,
0020,
0006,
001A,
FFF7,
0018,
FFE9,
FFEE,
FFF3,
FFE5,
000E,
0036,
0013,
0012,
0020,
001A,
FFF0,
0015,
FFFB,
FFF0,
0024,
FFE4,
0025,
002F,
FFD7,
0002,
002A,
001B,
0023,
FFFF,
0049,
FFED,
FFDC,
0012,
0024,
FFF8,
FFEB,
FFE7,
000B,
FFE2,
FFDE,
FFF6,
FFFA,
004A,
FFE1,
FFD1,
000D,
000B,
FFEA,
FFE1,
FFF9,
0020,
0001,
0007,
FFFE,
0010,
FFE4,
0016,
0011,
FFCF,
FFC6,
FFE5,
0014,
FFE4,
0029,
000B,
FFFC,
000C,
FFFA,
0006,
FFF3,
FFC7,
FFF8,
0017,
0011,
0009,
000E,
FFE7,
FFD5,
002D,
FFF8,
FFE2,
0003,
FFD2,
FFF3,
0030,
002A,
FFFE,
0021,
0003,
0006,
FFEB,
0009,
0000,
0011,
FFEA,
002A,
0016,
000B,
001F,
FFFB,
FFFA,
FFDB,
FFE7,
FFD9,
FFE5,
FFD7,
FFD6,
FFDA,
0034,
0013,
FFD4,
0016,
0004,
0035,
000E,
000A,
FFF6,
0011,
0012,
FFF9,
0008,
001C,
0018,
FFF0,
FFF9,
0009,
FFCF,
FFD6,
0006,
0029,
FFD9,
0015,
FFB4,
0017,
FFD9,
FFEE,
FFEC,
0028,
0019,
0005,
0000,
FFF1,
0009,
0027,
0005,
FFF3,
0028,
0023,
FFF2,
FFE6,
FFE2,
FFE6,
0012,
0019,
0018,
0023,
FFDF,
FFE8,
FFFE,
001A,
FFE9,
FFFC,
FFDE,
0003,
0000,
002C,
0006,
FFE0,
0003,
0005,
001F,
002B,
FFFD,
0002,
0005,
FFFC,
FFDF,
FFE8,
FFE6,
FFE9,
001C,
0010,
FFFC,
0017,
001B,
FFE4,
000D,
FFEA,
0003,
0004,
002A,
FFF2,
FFF7,
FFFE,
0036,
FFFA,
FFF5,
FFFE,
002C,
0019,
000C,
FFDB,
002C,
FFDA,
FFDF,
0010,
FFE8,
FFFC,
FF8E,
FFFC,
002E,
0005,
FFE9,
FFF7,
FFDF,
000D,
0002,
0019,
FFE5,
0027,
FFEB,
FFFE,
FFE2,
0018,
0008,
FFF5,
0032,
FFEE,
FFF7,
0022,
FFFC,
0032,
FFE0,
FFE3,
0022,
FFEB,
FFEB,
FFDE,
FFF4,
001E,
FFB4,
FFD9,
0041,
FFFB,
0025,
002C,
FFE3,
002B,
FFF9,
FFE5,
FFE5,
001A,
0025,
FFD9,
FFE8,
FF9B,
000B,
FFDD,
FFCD,
FFF6,
0021,
0028,
FFE7,
FFEB,
FFE3,
FFF7,
FFF8,
0021,
FFFF,
FFD8,
FFEF,
FFE0,
0026,
002C,
0034,
0012,
000B,
FFF6,
FFF5,
001A,
FFFA,
0003,
002E,
0005,
FFF9,
FFDB,
001A,
FFFC,
0026,
FFFA,
FFFF,
0029,
001E,
0035,
0001,
0014,
001A,
001D,
000B,
0006,
0033,
000D,
FFFF,
0009,
0014,
0022,
FFE2,
0011,
0007,
000E,
001A,
FFEC,
FFE4,
0007,
FFC8,
FFD4,
FFE1,
FFE0,
000A,
FFEB,
002A,
002B,
0026,
FFFB,
0016,
001A,
FFDF,
FFE9,
FFF8,
0028,
FFEA,
000C,
0028,
FFF6,
FFF7,
0004,
0025,
0000,
000C,
0025,
FFFC,
001B,
001D,
FFF4,
FFDF,
FFF1,
FFD9,
FFDE,
0026,
FFF0,
0013,
FFE7,
0030,
FFDF,
FFEF,
FFE1,
FFD1,
FFD3,
000A,
FFD9,
FFFD,
000D,
FFF1,
FFFD,
0027,
0006,
FFEC,
FFDF,
0016,
FFE6,
0019,
0011,
0003,
0007,
FFE6,
0014,
FFEA,
001B,
0021,
0007,
FFDB,
FFF4,
001C,
FFEA,
002E,
FFDF,
000F,
FFCE,
FFD2,
0000,
001A,
0027,
003C,
0009,
0011,
FFFF,
002F,
0014,
FFF1,
0014,
FFF8,
001A,
FFF1,
FFFD,
0023,
FFF3,
FFD4,
0012,
FFF7,
0028,
0002,
FFFC,
0008,
FFF2,
FFFF,
0000,
FFF4,
FFF3,
0011,
FFA1,
FFDB,
FFDB,
000C,
FFE2,
001E,
0013,
FFEE,
0011,
0020,
FFFE,
FFEE,
FFFC,
0025,
FFDF,
0004,
001E,
0028,
FFE6,
001C,
FFFB,
0006,
0002,
000F,
000C,
0022,
FFE9,
000F,
FFD4,
001D,
FFFF,
FFED,
0006,
FFE7,
0008,
FFF5,
FFFA,
0014,
FFD0,
0004,
000B,
001E,
0026,
FFE4,
FFEA,
FFA9,
001D,
0008,
0007,
FFE0,
0015,
FFE9,
FFF6,
FFFA,
FFEF,
0015,
0004,
0008,
FFD4,
FFD2,
0024,
FFF6,
0022,
0008,
FFF2,
FFFF,
0025,
0017,
0014,
0021,
0015,
FFEB,
0007,
0000,
0003,
FFF7,
FFD1,
0001,
FFE8,
000E,
0012,
0023,
FFFD,
0000,
FFFE,
000E,
FFF3,
FFEA,
FFD3,
FFD4,
001E,
0016,
FFF4,
0029,
0008,
FFEA,
0025,
FFFF,
001B,
FFE7,
000D,
FFFD,
FFF8,
FFE2,
0021,
FFF7,
0018,
0032,
0004,
000F,
0006,
0018,
FFE3,
000A,
002E,
0004,
000A,
0020,
0022,
FFFE,
FFFF,
FFFA,
FFFA,
FFF1,
0004,
FFFA,
0026,
0027,
FFF9,
0024,
0032,
002A,
0019,
000E,
FFE5,
FFF9,
FFF6,
FFF6,
0020,
0018,
FFF0,
0008,
0018,
FFD7,
FFEC,
001F,
FFD6,
FFF6,
0021,
0011,
002D,
001E,
0055,
002C,
FFFA,
FFE7,
0018,
FFEB,
000E,
FFEF,
FFF5,
FFD6,
FFF2,
0025,
FFE9,
FFFB,
001C,
FFE7,
001B,
FFFD,
FFF3,
FFDE,
FFE5,
FFFC,
FFDD,
000F,
FFF2,
0016,
0009,
0013,
001A,
001C,
0037,
000C,
0000,
0017,
FFF3,
FFE9,
001C,
0010,
001B,
FFEC,
FFE3,
000B,
0001,
000C,
0014,
0012,
0009,
0026,
FFF1,
FFDA,
FFE2,
FFFC,
0018,
FFE9,
0017,
000F,
000A,
FFE8,
0008,
001B,
000A,
0012,
0002,
FFFD,
0019,
002B,
001A,
FFDB,
0016,
0013,
0009,
FFFC,
002F,
0046,
FFF8,
FFCB,
FFE4,
0008,
FFD2,
FFE0,
FFFB,
FFF6,
0003,
FFE3,
FFF1,
001D,
000B,
FFF2,
000A,
0015,
FFF2,
0001,
0007,
0023,
FFFE,
FFE2,
0004,
FFDF,
0022,
FFFC,
FFDF,
0013,
0001,
FFF1,
004F,
FFE9,
0002,
FFFD,
0027,
0012,
FFD9,
0006,
FFDC,
0001,
001A,
FFDB,
0017,
FFF0,
FFEF,
0001,
0010,
FFD5,
FFF2,
001B,
FFE3,
0015,
FFEF,
0007,
FFD7,
0009,
0024,
0012,
001C,
FFF8,
FFD4,
FFDA,
0034,
0014,
FFEC,
FFF6,
0014,
FFD9,
0032,
FFF7,
002D,
0009,
FFF0,
0012,
0005,
0024,
001C,
0007,
0008,
001C,
FFEB,
0027,
FFFE,
001C,
FFDF,
0022,
0018,
FFEA,
0000,
001F,
0014,
FFFA,
FFF9,
000D,
0022,
0006,
FFF5,
0020,
FFCC,
FFFE,
0003,
FFDD,
0026,
0005,
0000,
FFF2,
0000,
002B,
FFE1,
0002,
FFDC,
FFDA,
FFF5,
0016,
0017,
FFF0,
FFFA,
FFEA,
0014,
FFF1,
FFF8,
FFF1,
006A,
FFDC,
0010,
FFDF,
001D,
0011,
002A,
0023,
FFE0,
FFFA,
FFFB,
0013,
FFD9,
FFE5,
0009,
000A,
FFF6,
0014,
0015,
0026,
000D,
FFFF,
FFF7,
000B,
FFF1,
002D,
0011,
FFE1,
FFDC,
0001,
FFF5,
FFDB,
FFD8,
0014,
001F,
FFF8,
0009,
FFD6,
FFEE,
0008,
001F,
0015,
0006,
FFF9,
FFEF,
FFFD,
0003,
0020,
FFEF,
0003,
0019,
0029,
FFD4,
0022,
FFFC,
000B,
FFF7,
FFED,
FFD5,
001C,
0031,
001B,
FFF7,
0011,
0011,
0012,
002B,
FFDC,
0027,
0026,
FFF4,
FFEA,
0020,
FFE9,
001D,
000B,
FFFD,
0000,
FFFB,
FFEE,
FFE8,
FFFC,
FFF4,
FFF8,
0023,
001B,
FFF9,
002D,
0007,
FFDA,
002F,
0025,
0014,
FFFE,
0019,
0012,
FFF5,
0021,
FFE8,
FFDC,
0000,
0006,
FFEA,
FFF8,
FFED,
000A,
FFEF,
0014,
0003,
FFF0,
0003,
0002,
0014,
0007,
FFF8,
0011,
0025,
0022,
FFFD,
FFF9,
FFFB,
0019,
0026,
0025,
FFFB,
001E,
FFFE,
001D,
000E,
FFDB,
FFE2,
FFFB,
001B,
0010,
FFD8,
000B,
FFE9,
0009,
0003,
0005,
0014,
FFED,
0015,
FFDC,
0018,
FFE4,
FFDC,
FFE5,
FFFC,
FFFE,
FFF9,
001E,
0007,
FFFF,
0009,
FFFA,
0013,
0026,
001A,
0005,
FFF1,
0029,
FFF0,
0011,
FFFE,
0007,
0006,
0007,
FFFE,
001C,
001D,
0005,
0019,
FFEC,
001E,
FFF0,
FFED,
001A,
FFFD,
0006,
0026,
FFFC,
0006,
001D,
FFDD,
FFD9,
FFD8,
FFEA,
001A,
FFE9,
0009,
0000,
000F,
0008,
FFE5,
001C,
FFED,
FFED,
000E,
FFF0,
000A,
001B,
0019,
FFE1,
0014,
FFEA,
0017,
001A,
0016,
000A,
0005,
000F,
FFEB,
FFEF,
0007,
000E,
0023,
0003,
FFE0,
000E,
0011,
FFE4,
FFE2,
0006,
FFEF,
FFE4,
FFDA,
FFF2,
0010,
001D,
FFEA,
0004,
FFCF,
001A,
FFDD,
FFE8,
000C,
FFF6,
0011,
FFF9,
0020,
001C,
000A,
FFE7,
0008,
000E,
FFFD,
FFEA,
0025,
0017,
0010,
FFEC,
000F,
0015,
FFEF,
FFF9,
FFFF,
FFDC,
FFEC,
FFED,
FFE2,
0003,
FFFB,
0026,
0025,
FFFA,
FFFE,
0023,
000F,
0022,
0008,
FFE4,
001C,
0013,
FFE7,
FFFD,
001D,
FFFB,
FFF1,
000A,
000A,
0009,
0001,
FFF7,
0012,
FFDE,
001D,
FFD7,
FFEF,
FFEC,
FFE5,
FFDA,
0009,
001C,
FFE0,
0012,
FFF6,
FFE8,
0018,
FFF1,
FFEB,
000C,
000F,
0007,
FFF7,
FFF8,
FFDF,
001D,
FFE4,
FFFB,
000D,
FFF7,
FFF5,
FFF5,
0012,
FFAF,
FFDF,
FFBB,
FFF3,
FFEE,
FFD9,
000F,
FFD7,
0006,
0011,
0008,
0002,
FFE7,
FFEA,
FFE6,
FFDF,
FFE7,
FFEC,
000D,
002A,
0001,
000F,
FFDA,
0024,
FFA4,
003C,
FFEB,
0017,
0012,
0023,
FFC6,
000B,
FFFE,
0006,
0033,
0019,
FFFF,
FFF7,
000F,
FFE5,
0008,
FFDE,
0022,
002A,
FFDA,
0005,
FFFE,
0029,
0009,
FFF3,
FFD7,
0003,
0003,
FFDF,
FFF7,
0023,
FFCF,
FFEA,
FFEE,
0013,
FFF0,
000F,
FFD1,
0018,
FFE4,
0009,
0010,
0000,
0023,
FFED,
0020,
0010,
0028,
FFC6,
FFDB,
0025,
001C,
0000,
FFF2,
000A,
FFF2,
FFF7,
FFE3,
FFFB,
FFF0,
FFEA,
0002,
001B,
FFEE,
0031,
002E,
0005,
FFDD,
0022,
0014,
0020,
FFDC,
FFCE,
FFCE,
FFEE,
0012,
FFCF,
FFE4,
FFE4,
001E,
FFC4,
0002,
0018,
0016,
FFD2,
FFF3,
FFDD,
0002,
FFC3,
0009,
FFF8,
003C,
0012,
FFF0,
FFF9,
FFDE,
0007,
0018,
000B,
0020,
FFF7,
002B,
0035,
0019,
0025,
000F,
0011,
FFC2,
000C,
FFE5,
FFFD,
000C,
FFF0,
FFFF,
FFFE,
FFF5,
FFFC,
0028,
000C,
0013,
FFD3,
0009,
FFDA,
FFD9,
000E,
FFCE,
0006,
FFE0,
0029,
0015,
FFFE,
0002,
FFFE,
000D,
0008,
FFF9,
FFE6,
FFEB,
0027,
0023,
000F,
0029,
FFF6,
0000,
FFC3,
FFC6,
001A,
FFF0,
FFFA,
000D,
FFCF,
0006,
FFDA,
FFDB,
0033,
FFCB,
001C,
FFDC,
0007,
FFF8,
FFD5,
001A,
001E,
FFFF,
FFE3,
000E,
000E,
FFF5,
FFE9,
0008,
FFDA,
0010,
FFC8,
0018,
FFD8,
0033,
FFF0,
FFEE,
0000,
FFFD,
FFFD,
0008,
FFD7,
001C,
002A,
FFF4,
FFD2,
0012,
FFEB,
FFFE,
0009,
FFEE,
FFE2,
0018,
0027,
0011,
FFDE,
FFF6,
001E,
0024,
FFE4,
0001,
0014,
000F,
FFE9,
FFDF,
FFEE,
FFE3,
0017,
0000,
FFF5,
001F,
FFEC,
0015,
001C,
0003,
FFEE,
FFD1,
FFE9,
FFDF,
0016,
001C,
0007,
FFD5,
FFF9,
FFDD,
FFE7,
FFFD,
0020,
0010,
001D,
FFD5,
FFB5,
FF9D,
0011,
000F,
FFED,
002A,
FFF2,
001C,
0014,
FFF0,
001A,
000C,
0025,
001C,
0026,
000E,
0016,
FFFA,
002F,
0009,
FFF2,
0007,
0011,
0012,
0008,
FFFE,
FFF1,
FFF5,
0031,
FFF5,
FFD1,
0010,
000A,
000F,
0012,
001A,
FFD6,
001A,
FFFA,
FFD3,
FFEB,
FFEE,
FFD4,
FFDE,
0015,
001B,
FFFA,
0020,
000B,
FFFB,
FFE4,
0031,
FFEE,
001C,
0001,
FFF3,
FFE3,
0015,
001F,
FFDB,
FFEB,
FFE4,
0004,
FFEB,
001F,
FFD6,
0005,
FFF7,
0011,
0029,
0015,
FFF3,
0025,
FFC9,
0034,
0008,
0039,
0035,
FFFB,
0022,
001C,
FFE8,
001F,
000F,
0025,
0004,
0012,
0017,
FFF3,
FFFB,
0029,
0005,
FFEC,
0013,
FFFF,
0018,
FFEB,
FFD4,
FF88,
0004,
FFF2,
FFF2,
FFD8,
000A,
FFB9,
000F,
0015,
FFF4,
FFFF,
FFE1,
0020,
FFE7,
FFFB,
FFED,
0009,
0027,
FFEB,
0018,
0027,
FFF4,
000E,
FFF1,
0005,
001A,
0034,
0017,
0007,
0013,
FFFF,
FFFA,
FFE3,
FFE4,
FFD1,
FFFB,
000B,
FFE7,
FFCF,
FFEF,
0027,
000B,
FFED,
001A,
FFBB,
0027,
FFFD,
0007,
FFF0,
FFDB,
FFEF,
FFAF,
FFD5,
FFFF,
FFF0,
0019,
FFE7,
0009,
0018,
0004,
0007,
0003,
FFF9,
0029,
FFDE,
0014,
000A,
0021,
0013,
FFEF,
FFE8,
0012,
0025,
000F,
000C,
FFF2,
FFEB,
FFDC,
0023,
0025,
FFF0,
FFFD,
FFE6,
FFDA,
001E,
FFDE,
001A,
002D,
001F,
0024,
FFE0,
0002,
FFE5,
001C,
0012,
FFD9,
FFE0,
FFDF,
FFD7,
FFF2,
0008,
FFF3,
002B,
000E,
0039,
0010,
FFEA,
FFF5,
002C,
0001,
FFEC,
001A,
0007,
FFFC,
000E,
FFF3,
000F,
000B,
0026,
0015,
0011,
FFE8,
FFFC,
001C,
0010,
FFDA,
000F,
0002,
FFFA,
0017,
FFFE,
FFDD,
001C,
0021,
FFE9,
FFFD,
002B,
000E,
FFEC,
001A,
FFFC,
0004,
FFF6,
000E,
002A,
FFE1,
FFFA,
FFF4,
0000,
FFD3,
FFCF,
0022,
FFDF,
FFF0,
FFE2,
FFE0,
000F,
FFEC,
FFD2,
FFDF,
FFF9,
FFEE,
0011,
0033,
FFE7,
0010,
FFE2,
0017,
FFF8,
0010,
000A,
0037,
FFE5,
FFDF,
FFEE,
0004,
002E,
FFEE,
FFFA,
0027,
001A,
FFEE,
0018,
FFDE,
000E,
FFDA,
0003,
FFD2,
FFE7,
0011,
FFF7,
0014,
0030,
FFF8,
0003,
0001,
000E,
0015,
000C,
000E,
000F,
0020,
001D,
0001,
0010,
0025,
0025,
FFF8,
000F,
0024,
FFE3,
FFFE,
0021,
000C,
FFFB,
0028,
FFFE,
0007,
000E,
FFF2,
FFD6,
0005,
002B,
FFE9,
0019,
0013,
0007,
0025,
FFF9,
FFF3,
002A,
FFFB,
FFE7,
0024,
0038,
FFE6,
001B,
0022,
FFF0,
FFEB,
FFF0,
FFD9,
0024,
0003,
FFF3,
FFD7,
FFF5,
FFE3,
FFE2,
FFE9,
000F,
FFFB,
FFEA,
0016,
0009,
FFF6,
FFDA,
FFEA,
FFF1,
FFE8,
FFCF,
0005,
FFB8,
0009,
FFF7,
002C,
FFFE,
FFEE,
0004,
FFF1,
0022,
0000,
FFEC,
002A,
FFE5,
0021,
0021,
FFEE,
0013,
0005,
FFDC,
FFFF,
001D,
001A,
0017,
FFE0,
FFEA,
FFFC,
0012,
FFD2,
0015,
0015,
FFF9,
000F,
002D,
0003,
FFED,
0012,
FFDF,
FFFD,
0002,
FFF5,
FFDB,
000B,
0013,
FFF3,
0016,
FFD0,
0005,
001A,
001E,
0014,
FFF2,
FFD7,
FFEA,
FFDF,
0010,
001D,
FFDD,
0014,
000E,
FFF9,
FFFE,
FFF9,
FFF8,
001D,
0017,
FFEB,
FFFE,
0006,
003C,
FFFE,
000F,
0006,
000B,
0015,
FFDA,
FFF9,
0016,
001B,
FFEE,
FFE3,
FFF5,
0019,
001B,
0023,
FFE0,
0011,
FFF0,
0014,
FFE7,
FFE9,
001E,
001F,
FFFA,
FFDE,
FFD6,
0025,
FFE5,
FFF0,
001E,
FFE1,
000F,
000D,
0027,
FFE9,
0009,
FFF2,
0028,
FFE1,
FFFE,
0016,
FFDE,
0016,
0006,
0036,
0011,
FFF8,
FFDB,
0012,
FFE3,
FFFE,
0022,
000F,
0003,
FFEC,
0009,
FFFE,
FFEB,
001F,
FFE6,
FFF2,
0005,
FFFD,
001D,
0026,
FFF0,
FFC2,
FFDA,
001D,
001B,
FFFD,
FFE2,
FFFC,
FFDA,
FFFE,
FFEE,
0024,
0007,
0029,
FFED,
FFF2,
0031,
0044,
003B,
0020,
FFEC,
0007,
000B,
FFEF,
FFE7,
000D,
FFE4,
0024,
FFEE,
0033,
FFE4,
FFCA,
FFE0,
FFF0,
0011,
FFF2,
FFE3,
FFEC,
FFFA,
FFD6,
FFE9,
0013,
FFED,
0008,
0012,
FFFD,
FFED,
0018,
0012,
002B,
000D,
FFD8,
FFF0,
002A,
0018,
001C,
0012,
FFD9,
FFEC,
0023,
0002,
0018,
0027,
0013,
000C,
002C,
0006,
FFDD,
001D,
0017,
FFEF,
0011,
FFE3,
FFE6,
0013,
FFEB,
001C,
FFEB,
002B,
0000,
FFE9,
FFFD,
FFE5,
FFFF,
000D,
FFF8,
FFF2,
FFEA,
FFFA,
0001,
002A,
001A,
0013,
FFEF,
0002,
FFE3,
FFE9,
FFDE,
FFF2,
FFEA,
001E,
000A,
FFF2,
002D,
0023,
FFFD,
0016,
0006,
FFE4,
002B,
0026,
0021,
FFF4,
000D,
FFE1,
FFF8,
0054,
0025,
FFEA,
0011,
0009,
0008,
003C,
0029,
FFEA,
FFDF,
0033,
0036,
002C,
FFFE,
FFD3,
FFE6,
001D,
FFC9,
FFE3,
001C,
000D,
FFFC,
0011,
FFF8,
0000,
001F,
001E,
FFE1,
FFEA,
0014,
0015,
000C,
0007,
0001,
0010,
FFF9,
FFD0,
FFEB,
FFFA,
0023,
002E,
002D,
FFE2,
000D,
FFED,
FFD2,
0013,
FFFB,
000F,
0003,
FFF6,
0045,
FFEE,
0010,
0011,
FFF8,
FFFD,
002F,
001C,
FFF9,
FFD4,
0000,
001D,
0004,
000C,
0012,
0022,
000B,
0001,
002D,
FFD4,
0013,
FFE4,
001C,
FFCB,
0032,
0017,
0018,
FFF1,
000B,
000D,
000C,
001C,
0004,
FFE4,
0030,
FFEB,
FFF0,
FFDA,
FFFB,
FFEC,
FFF9,
0007,
001B,
FFED,
FFFA,
FFFA,
0026,
002D,
FFEF,
0019,
0033,
FFF8,
FFDF,
FFE7,
FFF5,
000B,
FFEA,
FFF1,
0033,
FFF0,
FFF9,
001E,
FFDC,
FFF6,
0026,
001E,
FFF5,
FFE0,
FFD7,
000D,
FFFF,
FFFD,
FFEB,
0014,
001C,
0025,
FFFD,
0013,
0018,
FFF9,
0025,
0001,
0008,
FFEF,
FFE4,
0006,
0008,
0022,
0003,
FFD3,
0035,
0015,
FFFF,
0017,
0026,
FFF4,
000F,
0008,
002B,
FFED,
FFDE,
001C,
FFF0,
000A,
FFF7,
FFCF,
FFE2,
FFB6,
FFD2,
FFFC,
000B,
0005,
0023,
0006,
0025,
0017,
001C,
FFE7,
0026,
FFD8,
0010,
0013,
001F,
001D,
FFF8,
0013,
FFE3,
FFEC,
001D,
0025,
0000,
FFF6,
FFFA,
FFF9,
FFF7,
FFDC,
0008,
FFFE,
000D,
001D,
0015,
0005,
FFFC,
000B,
FFF7,
000F,
0018,
0020,
FFFF,
FFDB,
0000,
0001,
FFDC,
FFE2,
0024,
0003,
0020,
0007,
001A,
FFF3,
FFEB,
0015,
FFFD,
000F,
001E,
0011,
FFF7,
0012,
FFF1,
001C,
FFF0,
FFFC,
FFD5,
0004,
FFEC,
001D,
001D,
FFF1,
0028,
0014,
FFB3,
0019,
FFF6,
003B,
002C,
0028,
FFFD,
0014,
FFEA,
0019,
FFD8,
FFEF,
FFF8,
0009,
000A,
0004,
0003,
0016,
000E,
000C,
FFDD,
FFDF,
0025,
0005,
FFEA,
0019,
000D,
FFF7,
0011,
0004,
FFF3,
FFC7,
FFE8,
FFF5,
0000,
FFD9,
FFE1,
002E,
002A,
002F,
0023,
0024,
0031,
0017,
FFFF,
0011,
FFE7,
0017,
0033,
FFFE,
FFE6,
0012,
0031,
000C,
0029,
0008,
0019,
0004,
0009,
FFCD,
0028,
FFEE,
FFFA,
001C,
FFF1,
FFDB,
001B,
FFF5,
0022,
000E,
FFE1,
FFCA,
FFFD,
FFFF,
FFEA,
FFEC,
FFF0,
0024,
0014,
001E,
0011,
0020,
FFF4,
0009,
0028,
000D,
FFFA,
001F,
0025,
FFFD,
0005,
002B,
FFFB,
FFEE,
0000,
002C,
FFF6,
FFF8,
FFF6,
0015,
FFD5,
FFE5,
0005,
0020,
0018,
0012,
000A,
0003,
0037,
FFFB,
0003,
0003,
001F,
0016,
FFF1,
001F,
0018,
FFE4,
0016,
FFD4,
001D,
0010,
001B,
FFD6,
0033,
0004,
FFEA,
0002,
0022,
0022,
FFE9,
0025,
0024,
002B,
FFF5,
0003,
FFE2,
FFDD,
0016,
0000,
FFE2,
0013,
FFD5,
FFE2,
0021,
FFE6,
FFFF,
0005,
002B,
0009,
FFF2,
FFE9,
FFED,
FFE4,
001F,
0010,
FFE0,
0010,
FFDF,
FFDE,
001C,
FFE5,
000A,
FFDB,
001B,
FFF3,
FFD4,
001C,
000E,
FFE1,
0014,
FFDD,
0006,
FFEB,
0008,
0018,
FFFB,
0017,
0008,
FFFC,
001A,
001C,
FFC5,
0000,
FFDD,
0004,
FFFD,
0014,
FFF1,
FFFD,
0021,
FFFF,
0030,
0005,
FFF9,
0019,
FFF0,
0022,
FFDA,
000A,
0010,
003A,
FFF7,
000A,
FFF6,
0034,
FFCA,
002C,
0011,
0027,
0022,
0003,
FFD5,
0010,
FFED,
FFD5,
001F,
FFFF,
001F,
0024,
FFEE,
0001,
FFF9,
FFEC,
FFDF,
FFF1,
0031,
000F,
0015,
FFE9,
0010,
FFFE,
FFF5,
001B,
FFFF,
FFFF,
FFF6,
FFE7,
001B,
0005,
0027,
FFF9,
0008,
FFE1,
000F,
FFF0,
0012,
0037,
FFDC,
FFF6,
002C,
0006,
FFFB,
FFD8,
002F,
0002,
FFD7,
001C,
0042,
0033,
0004,
FFFB,
FFEC,
FFF0,
0022,
FFE2,
0020,
0025,
FFE4,
001E,
0024,
FFE8,
0000,
0020,
FFEE,
0000,
FFFB,
000C,
FFE7,
FFE3,
FFF5,
FFC9,
FFF2,
000E,
FFF9,
0003,
0005,
FFB5,
FFD0,
FFE3,
0010,
0000,
FFF4,
FFFA,
FFE3,
FFF2,
0019,
FFE7,
0013,
FFE4,
001F,
0013,
0007,
0003,
001E,
0007,
000C,
0001,
001C,
0029,
0018,
FFE3,
000B,
FFD8,
0015,
0004,
FFF7,
0030,
001E,
0008,
0018,
0008,
FFE4,
FFF7,
FFE2,
FFFF,
001A,
0007,
FFEB,
FFED,
FFEB,
FFFC,
FFE3,
FFEB,
0023,
001B,
0018,
FFF5,
0001,
0027,
0001,
0019,
0010,
0000,
003B,
0016,
FFF5,
FFF5,
0007,
003A,
FFFF,
FFE5,
FFDC,
0002,
000E,
0007,
FFF1,
FFF5,
0012,
FFF5,
0030,
FFE6,
FFF9,
FFDF,
FFE2,
0008,
FFDE,
FFFE,
FFEA,
0014,
0012,
0025,
FFF8,
FFEA,
FFEF,
FFEB,
FFF6,
FFF4,
0011,
FFE3,
FFF8,
FFFC,
002F,
FFF2,
0021,
003C,
FFDA,
0034,
0010,
0007,
FFE8,
0028,
FFF9,
0022,
001D,
FFDF,
0012,
0002,
FFE1,
0002,
0005,
0012,
0016,
0018,
0033,
FFFD,
FFF1,
001B,
0036,
FFD1,
000C,
FFF1,
0012,
0009,
0001,
FFF2,
0032,
0010,
FFF1,
000C,
FFF2,
FFF5,
FFD3,
FFD6,
000F,
001A,
FFEB,
FFEB,
0028,
FFEB,
001D,
FFFC,
FFE1,
FFF7,
FFE9,
FFFB,
0002,
001B,
000B,
003A,
0056,
0000,
0027,
FFDC,
0004,
FFE4,
0011,
FFEF,
FFEE,
000C,
0012,
FFFF,
FFDF,
001D,
0017,
FFEB,
FFD2,
000A,
FFE7,
FFF4,
FFF8,
FFF1,
0002,
FFD3,
0016,
0009,
FFF5,
FFE7,
003C,
FFF8,
0020,
FFF1,
FFEE,
0007,
FFDA,
0015,
FFF6,
000E,
0029,
0023,
FFE3,
FFED,
0009,
FFFC,
0016,
0019,
FFFF,
FFDD,
0003,
0014,
FFEF,
0005,
0010,
0004,
0020,
000A,
FFDC,
FFF9,
0000,
FFFE,
0022,
FFE3,
FFD0,
FFFC,
0003,
FFDD,
FFCE,
0019,
FFFD,
0017,
001C,
001C,
FFFE,
FFD6,
FFD9,
0015,
0014,
001F,
0010,
0010,
001D,
000F,
FFF7,
FFFD,
000C,
0027,
FFED,
0013,
0008,
FFD6,
FFF7,
0012,
0023,
002B,
0000,
0010,
FFFA,
004B,
FFEE,
0001,
0003,
0025,
0006,
0081,
0028,
0018,
FFFE,
0035,
FFED,
001C,
FFEC,
0010,
FFDB,
000E,
FFEE,
FFF6,
001E,
FFF2,
0007,
0011,
0013,
0021,
000A,
FFF2,
FFEA,
FFD2,
0017,
FFEE,
0000,
000A,
FFF9,
FFF1,
FFD4,
FFDC,
FFF3,
0038,
000B,
000B,
FFFA,
FFE0,
FFF9,
0045,
FFF6,
001B,
0021,
0006,
FFFF,
000E,
005A,
0021,
001F,
001D,
FFE4,
FFE6,
FFE2,
FFE4,
000F,
FFE5,
0021,
FFED,
000E,
FFFB,
001A,
FFEA,
0011,
FFEF,
0012,
0007,
0005,
FFE7,
FFEC,
FFDC,
0005,
0025,
0003,
FFFE,
001E,
0021,
0021,
001C,
0011,
001B,
FFDC,
FFFC,
0007,
FFF5,
FFFE,
001F,
FFDF,
FFD9,
FFF7,
FFDF,
0007,
0004,
FFFD,
005A,
FFDA,
001C,
FFEC,
FFEE,
FFF2,
FFC7,
FFEE,
FFDF,
FFF9,
FFEE,
002B,
0028,
0024,
0024,
FFF8,
FFE8,
0009,
000B,
FFF1,
001B,
FFEF,
FFDB,
0012,
001C,
FFD9,
FFE7,
0001,
0012,
000E,
0038,
FFFD,
FFDD,
FFDE,
FFF1,
FFE4,
0001,
FFD5,
FFFF,
FFF5,
0029,
001C,
000D,
FFFE,
FFF7,
FFF7,
0005,
0014,
000A,
000C,
FFED,
0025,
FFE6,
001F,
0022,
FFD6,
FFF1,
002C,
0013,
FFE6,
FFCD,
FFFE,
0027,
FFF0,
0027,
003E,
0019,
FFE5,
0003,
FFFE,
FFED,
0012,
002A,
0029,
FFF9,
FFF7,
FFD8,
0022,
0022,
FFF2,
0003,
FFF4,
0035,
0001,
0000,
0007,
FFEA,
FFED,
FFEA,
FFE7,
FFE4,
FFE8,
FFE3,
000B,
0025,
FFF9,
FFFB,
0000,
FFF6,
0023,
000D,
FFCF,
FFDC,
0001,
FFF9,
FFDF,
0011,
0023,
FFF9,
FFFB,
FFFD,
000E,
FFDB,
0016,
0016,
FFD1,
0004,
FFEF,
0006,
0005,
FFE6,
0011,
FFF7,
0004,
FFF3,
FFFC,
0019,
0013,
FFDD,
FFFD,
FFE1,
FFFC,
001B,
FFC0,
FFFC,
FFF8,
FFF9,
FFFC,
001E,
FFFE,
FFE7,
0014,
0024,
FFF3,
0012,
FFE8,
FFEB,
FFEB,
FFE4,
0022,
0026,
001F,
0023,
001D,
FFF1,
0011,
001F,
0016,
FFC7,
FFDF,
FFF9,
FFE5,
0004,
FFFF,
FFC8,
FFCA,
0002,
0015,
FFDE,
FFE5,
0006,
001B,
0022,
FFDE,
001F,
000F,
FFEB,
FFF8,
000E,
002E,
0004,
FFE2,
FFD7,
FFDB,
FFE9,
0019,
0016,
001C,
FFF6,
FFE8,
FFE2,
FFFE,
000E,
002B,
001E,
000A,
001E,
0000,
FFF3,
0002,
0020,
001E,
0001,
FFF7,
0003,
0001,
0004,
FFF4,
001E,
FFC4,
FFD5,
FFEC,
001F,
0018,
FFE5,
FFE5,
0011,
0014,
FFFB,
0004,
001C,
0016,
FFDC,
FFE8,
001F,
FFF2,
0012,
FFF5,
0020,
FFF1,
002F,
FFF0,
003C,
FFE3,
0008,
001F,
FFF3,
001F,
FFE7,
002D,
0001,
0018,
FFD7,
FFE5,
0026,
001E,
0022,
001A,
0014,
002A,
FFEA,
0010,
0027,
0008,
FFED,
0029,
000F,
0019,
000F,
000C,
0012,
FFDE,
FFEF,
0004,
FFF3,
0038,
FFF9,
FFE3,
0011,
FFE7,
FFD4,
FFF5,
FFD9,
FFE2,
001D,
001E,
000B,
0032,
FFFE,
000A,
002E,
000A,
0008,
0025,
000F,
FFEF,
0006,
001E,
FFF0,
0020,
FFF9,
FFF4,
FFF1,
FFFC,
0028,
0025,
000F,
002E,
0014,
FFEB,
FFE7,
0009,
000A,
FFFE,
FFFE,
0003,
FFE0,
FFDD,
001A,
FFD9,
0003,
0014,
FFF6,
FFE6,
002A,
0034,
FFFD,
0066,
FFB9,
FFD7,
000E,
FFDD,
002B,
001A,
0023,
FFE2,
0016,
FFBC,
000F,
FFE5,
001C,
001B,
002D,
FFDF,
002D,
FFD9,
FFFD,
0021,
FFC6,
0010,
FFF6,
FFFF,
0005,
0008,
FFFD,
004B,
0006,
0004,
0016,
FFED,
001B,
001F,
0001,
FFDB,
001C,
FFEB,
FFEF,
000E,
0012,
0006,
0025,
0018,
001A,
FFEC,
FFED,
FFCD,
0009,
0028,
0017,
0010,
FFF6,
0011,
0003,
FFDE,
FFFD,
FFF8,
FFDC,
002B,
FFEE,
FFEA,
000F,
FFEC,
0017,
0010,
FFF7,
FFFF,
FFF7,
0008,
0018,
0022,
0001,
0033,
FFE3,
FFF8,
0039,
002B,
FFDD,
FFF3,
FFAF,
0017,
FFFD,
0023,
000C,
000C,
0029,
FFE2,
FFC6,
0011,
FFF9,
0019,
FFF2,
0010,
0007,
000C,
FFFF,
FFE6,
FFE9,
0004,
000C,
FFD1,
003F,
0024,
FFE6,
0008,
FFE3,
FFFC,
FFD0,
FFF4,
FFD6,
FFE7,
FFFA,
0012,
FFED,
0017,
FFF6,
0005,
FFFF,
0015,
FFFD,
FFFF,
FFF0,
FFF1,
0006,
FFB9,
FFDC,
FFCB,
FFF9,
FFF3,
FFE7,
0010,
FFD6,
0025,
0002,
FFE0,
0001,
FFEF,
FFE2,
FFD9,
FFFE,
0035,
0009,
FFF8,
000C,
FFF7,
0023,
004C,
0037,
0009,
FFF0,
FFF4,
0015,
0018,
FFE7,
001B,
0015,
FFDE,
FFDE,
FFF3,
FFFF,
0000,
FFFC,
FFDE,
0000,
FFEB,
002E,
0006,
FFD9,
FFE3,
0017,
000D,
FFEE,
0006,
001E,
0015,
000F,
FFF4,
FFE7,
0002,
001E,
000D,
0028,
0012,
FFD4,
FFF3,
FFF9,
FFEA,
FFEC,
FFFC,
FFF7,
002A,
FFD1,
000A,
003F,
FFEA,
000B,
0020,
FFD2,
FFC6,
FFF6,
FFF0,
0018,
FFE9,
0013,
0007,
FFEB,
FFF4,
002C,
000C,
0026,
FFE5,
0026,
FFF5,
0005,
0001,
FFE3,
001B,
FFF7,
FFDD,
000C,
FFDA,
FFCB,
000C,
000A,
FFD7,
002A,
002C,
FFE0,
FFF4,
0007,
000C,
002F,
FFC2,
000D,
000F,
FFFD,
FFFB,
FFF5,
0001,
FFFC,
001A,
001D,
FFE4,
FFDE,
0029,
FFF5,
0029,
FFD3,
FFD9,
FFF8,
0008,
0025,
003C,
003B,
0006,
0017,
FFFD,
FFFB,
FFE8,
FFE6,
0008,
FFF8,
FFF2,
0011,
002D,
FFE4,
FFDF,
001F,
001D,
0000,
0003,
001A,
FFED,
FFE7,
FFE3,
FFF4,
000B,
FFE2,
000F,
0017,
0020,
FFFA,
FFF0,
002A,
FFFF,
FFF5,
0010,
FFED,
001A,
0018,
FFF4,
0014,
0028,
FFEE,
FFDF,
FFE7,
FFF6,
FFE7,
0002,
000A,
0025,
0013,
0019,
FFFF,
FFE9,
002A,
FFE8,
001F,
FFF7,
FFEC,
FFD8,
FFFC,
FFDE,
FFF9,
FFEF,
0026,
FFD5,
FFE4,
0022,
0017,
FFD8,
FFF8,
FFF7,
0010,
FFED,
0009,
0008,
FFDC,
FFF3,
0006,
FFD0,
FFF8,
001D,
000B,
000C,
FFFE,
001E,
FFF9,
0012,
000F,
FFE6,
FFDD,
0010,
0006,
FFEB,
FFDF,
0026,
002F,
FFD9,
FFF3,
000D,
0016,
FFF7,
0001,
002A,
FFFE,
001B,
005D,
002C,
0009,
FFE0,
001F,
FFF3,
FFFA,
0014,
0003,
000E,
0003,
FFCF,
0016,
FFEC,
FFEF,
0014,
FFDB,
FFE3,
000E,
002D,
FFE4,
FFDD,
FFDB,
FFE5,
FFF4,
FFE0,
FFFE,
0025,
0018,
0000,
FFDF,
001D,
000B,
0011,
0017,
FFF8,
FFF7,
000A,
003B,
0018,
0023,
000F,
FFF0,
0009,
FFDB,
003D,
001B,
FFF4,
0005,
0009,
FFDD,
001D,
FFE7,
0012,
0012,
0013,
FFE4,
FFF5,
0015,
FFFE,
0003,
0024,
FFE0,
000B,
0015,
FFE9,
FFEE,
0020,
FFD9,
FFF2,
0023,
FFE0,
0001,
FFF7,
0025,
0003,
0018,
002E,
000C,
000A,
FFFC,
FFD6,
0006,
FFE0,
FFE2,
0015,
FFFC,
FFF5,
FFE2,
FFF8,
0002,
FFF4,
003B,
001C,
0009,
0024,
FFEE,
0010,
FFBD,
0007,
0008,
000A,
FFF7,
FFEE,
000A,
FFE6,
FFE6,
FFD3,
0011,
0017,
0007,
0029,
0012,
FFD5,
001A,
0019,
0005,
000A,
FFF5,
FFE8,
FFE3,
FFDD,
FFF9,
FFEE,
0018,
FFE5,
FFF9,
0010,
0017,
0007,
0004,
0000,
0031,
0008,
FFE9,
0021,
0000,
FFDA,
FFE2,
FFEA,
0009,
FFE0,
001B,
0024,
FFD5,
0024,
FFFE,
0014,
FFFF,
002D,
FFFC,
0039,
0026,
0015,
0015,
FFEB,
FFDC,
001E,
FFED,
0004,
0014,
0011,
0006,
0005,
FFBE,
FFE2,
FFA0,
0021,
FFFC,
FFD6,
FFEF,
FFD4,
FFE8,
FFFB,
FFCC,
0022,
FFF9,
FFFE,
000E,
FFD6,
0025,
0059,
000A,
FFFF,
FFD7,
002C,
FFF8,
001D,
FFFD,
0021,
0007,
0005,
0014,
FFED,
0015,
000A,
0012,
FFF3,
FFDC,
FFEC,
FFFB,
FFF0,
FFBC,
001F,
FFF6,
FFE4,
FFFD,
0037,
0030,
0008,
0036,
001C,
FFF2,
003B,
0022,
001A,
0028,
FFD3,
0004,
FFF3,
000D,
0007,
FFF4,
0041,
FFFF,
0050,
FFF4,
FFD8,
0029,
FFF9,
001D,
0002,
005D,
0023,
0018,
000F,
FFFC,
0013,
0003,
0001,
0021,
0007,
FFF2,
FFE2,
0025,
FFD8,
0023,
0016,
0001,
000A,
0032,
0003,
002A,
000C,
0009,
FFFC,
003C,
001E,
FFDB,
0028,
001D,
000C,
FFFD,
000C,
0025,
0030,
FFFD,
0016,
0005,
FFF7,
0013,
0025,
0010,
FFE0,
0016,
FFF0,
000F,
0032,
0031,
0020,
0009,
FFD2,
0026,
0006,
001E,
FFE7,
FFE6,
0000,
FFE9,
0008,
FFFD,
FFDB,
0025,
000A,
FFFC,
FFF1,
0038,
0010,
0001,
0008,
0007,
0021,
FFF7,
FFEE,
FFF0,
0028,
0017,
FFCD,
FFEC,
FFFB,
FFE7,
000E,
0000,
FFF2,
FFE3,
FFC6,
0016,
FFDB,
000C,
0028,
002E,
0040,
0001,
0013,
FFCE,
FFE9,
FFDC,
FFE8,
002C,
001B,
000E,
001C,
0017,
002B,
0002,
000F,
0010,
0010,
FFE9,
0001,
FFD8,
FFE6,
FFE9,
004D,
FFD9,
FFD5,
0000,
0013,
000B,
FFFA,
0012,
0019,
001F,
FFF9,
0012,
FFD3,
FFF6,
0013,
FFF5,
0011,
FFF6,
FFF9,
000F,
001E,
000D,
FFFF,
FFE2,
000E,
FFFA,
FFE7,
FFF9,
FFD3,
FFEA,
0030,
0011,
FFD5,
FFEA,
0028,
0022,
0004,
001C,
FFEB,
0026,
001F,
0003,
001D,
0001,
FFD9,
FFC1,
001C,
0015,
0022,
0016,
FFFC,
FFBE,
FFED,
FFE0,
0010,
000D,
0000,
0003,
FFF3,
FFAE,
FFD7,
0011,
FFD3,
0011,
0030,
0030,
004D,
000C,
0025,
FFFB,
0041,
0018,
FFEF,
FFEA,
001A,
0028,
FFDD,
FFF4,
FFFF,
0020,
FFE6,
001E,
000E,
0031,
0003,
FFE8,
FFFE,
FFD9,
0030,
0002,
FFDD,
FFDE,
FFE5,
001F,
0071,
0035,
FFDB,
000A,
0032,
FFDE,
0009,
FFE3,
FFF1,
FFE3,
0010,
FFF7,
0001,
FFF4,
001D,
001D,
002B,
FFEA,
FFEC,
0013,
0016,
FFD6,
0024,
0004,
FFF9,
0028,
FFEE,
0023,
FFED,
0016,
0032,
FFEC,
FFF0,
FFFF,
FFE8,
0033,
FFDF,
FFF3,
FFB5,
FFC4,
FFDC,
FFFB,
002A,
001B,
0057,
0008,
FFD0,
002E,
FFE1,
FFE6,
0010,
003F,
000A,
FFEC,
001F,
0018,
FFFE,
FFF8,
000D,
002A,
FFF9,
FFEC,
FFEE,
0003,
000C,
0007,
0013,
FFF3,
0000,
002C,
001E,
0005,
FFD9,
0005,
0003,
006D,
0005,
000B,
0007,
0022,
0003,
0005,
FFEF,
0004,
FFE8,
FFF8,
FFF7,
0005,
001C,
000D,
FFFD,
0001,
001C,
000C,
0011,
FFDC,
001B,
FFEE,
002D,
FFBA,
001B,
003F,
000E,
0018,
FFE4,
FFFA,
0018,
0016,
FFD7,
FFEE,
FFF9,
000E,
0005,
0005,
0010,
000C,
0009,
0008,
0004,
0008,
0042,
0018,
FFF4,
0012,
FFF0,
FFEF,
FFC4,
001B,
FFE8,
FFD3,
0013,
0030,
FF98,
FFDC,
FFFD,
FFFE,
0016,
0008,
001D,
0034,
0014,
FFFA,
FFEF,
FFE3,
0023,
001C,
000D,
FFF8,
0024,
FFDE,
FFDE,
FFFF,
001E,
0007,
FFFA,
0016,
FFE0,
FFD8,
001E,
FFFD,
0021,
FFE1,
FFCB,
FFE0,
FFFD,
FFDA,
FFFA,
0016,
001C,
0038,
FFBF,
0009,
FFFC,
FFD8,
FFCF,
0016,
FFC9,
FFEF,
0027,
0006,
001D,
FFDD,
FFF9,
000E,
001B,
0006,
FFF9,
0028,
FFE8,
0017,
FFD0,
FFF1,
0037,
FFFF,
0026,
FFF1,
0017,
0041,
000A,
0020,
FFF2,
0027,
FFE3,
002E,
FFDF,
0010,
0004,
FFF0,
0016,
FFD4,
0037,
0022,
001E,
FFED,
FFDB,
000F,
000D,
FFF4,
FFC6,
0001,
0008,
FFC9,
FFD7,
FFD3,
FFFE,
000A,
0023,
0013,
0023,
0003,
FFED,
FFED,
FFE5,
FFF8,
000E,
FFEB,
001B,
0003,
0019,
FFF7,
FFFD,
FFF9,
0004,
FFE4,
FFD4,
FFFE,
FFF4,
0007,
FFFB,
000D,
0020,
FFEA,
FFEF,
0013,
FFD6,
000D,
002C,
0002,
FFE4,
0021,
FFFB,
001A,
FFED,
FFEC,
0022,
FFEF,
001A,
000C,
FFE8,
003A,
FFFC,
FFFF,
0018,
002A,
FFD8,
000B,
FFEE,
FFE4,
FFD6,
FFFB,
FFE2,
0008,
FFE2,
FFF8,
001A,
0030,
FFF2,
001B,
FFDA,
0001,
FFF2,
FFE6,
FFF3,
FFF1,
FFEF,
FFFB,
FFF5,
FFF5,
FFFA,
FFF2,
FFFB,
FFE8,
0008,
0016,
000A,
FFFB,
FFDB,
0018,
0008,
FFF6,
0024,
FFE3,
0022,
0006,
0000,
0019,
001D,
0023,
000D,
FFED,
001B,
0016,
0011,
FFF6,
FFFF,
001D,
001B,
001A,
FFDE,
0024,
000D,
0027,
000B,
FFF3,
FFFC,
0000,
0022,
FFF4,
FFF1,
0024,
FFFF,
FFCE,
000D,
002C,
0014,
FFEC,
FFEB,
FFDD,
0011,
0003,
FFE5,
0028,
0018,
FFFD,
FFEB,
0002,
FFD9,
0006,
0006,
FFEB,
FFEB,
000C,
FFF4,
000B,
0007,
FFFD,
0026,
0022,
000A,
0001,
FFDE,
000E,
FFF7,
000C,
FFD9,
FFEC,
000B,
0031,
FFF1,
0010,
002C,
FFFF,
FFF8,
FFD9,
FFDC,
FFDB,
FFEA,
001F,
0012,
FFFD,
0018,
FFE5,
0023,
001C,
0002,
FFE6,
FFE7,
FFF6,
FFD7,
0014,
FFFB,
FFF5,
FFDE,
0008,
001F,
0015,
FFD9,
0010,
002A,
0025,
0003,
0022,
FFF3,
0021,
FFE6,
0009,
FFE1,
0019,
001E,
FFE4,
FFFF,
FFDC,
0028,
FFFB,
FFF9,
0009,
FFE7,
FFF2,
001F,
FFE1,
FFF1,
000F,
0005,
0002,
0012,
FFDA,
FFDE,
001E,
000F,
0018,
FFF4,
FFE0,
FFF5,
FFD2,
FFE6,
001D,
0016,
001F,
FFF8,
000C,
FFED,
FFE6,
0013,
002F,
0010,
FFE6,
FFE6,
FFFB,
FFE6,
0018,
0012,
0028,
FFF4,
FFEC,
FFE8,
FFF4,
000F,
FFFC,
0007,
0000,
0002,
0009,
0008,
0009,
0015,
002F,
0018,
FFEE,
FFFC,
FFE2,
0004,
FFE3,
0032,
0012,
0022,
0017,
0022,
FFD3,
FFFA,
001C,
FFE7,
FFFF,
FFE7,
0035,
FFFC,
0008,
FFF7,
FFF8,
0001,
0033,
FFDA,
0000,
FFFF,
0014,
FFE6,
FFC4,
0034,
FFF9,
000C,
FFD5,
FFE2,
0009,
0047,
001F,
FFF5,
FFFF,
0019,
0008,
000A,
FFC9,
001A,
FFDD,
002B,
0017,
FFC9,
002E,
0018,
FFEC,
0019,
0008,
0015,
001B,
FFF1,
FFDB,
003B,
001B,
FFDF,
FFC9,
FFDF,
0027,
0006,
FFF8,
0016,
FFF9,
0022,
FFF8,
000A,
000A,
0008,
0013,
0035,
FFCC,
FFD9,
0031,
0027,
0029,
0005,
FFF0,
003E,
0027,
FFF0,
FFD4,
0019,
003F,
000A,
0000,
0038,
0017,
FFF5,
FFDC,
FFF1,
0023,
FFF0,
FFFB,
0003,
FFE9,
0018,
001B,
0029,
FFCC,
FFEE,
003A,
FFEF,
0006,
0016,
FFF9,
0010,
0079,
000B,
000C,
FFE3,
0005,
0025,
FFDC,
FFE8,
001B,
FFF5,
FFE0,
001D,
0009,
FFD5,
001E,
0013,
FFF1,
0018,
FFF3,
FFF2,
FFE1,
0014,
FFEF,
FFF6,
FFF4,
FFF6,
0017,
000C,
0036,
FFEB,
FFE4,
001D,
001F,
FFF2,
002C,
FFEC,
FFEB,
001E,
0037,
000F,
002C,
FFED,
0003,
FFE0,
0013,
0038,
001C,
001F,
0007,
000D,
FFD4,
FFF2,
0010,
0016,
FFDF,
FFF9,
FFE2,
FFEE,
000B,
FFE4,
0026,
0001,
0010,
FFEF,
002D,
0025,
FFF1,
001D,
FFFD,
0029,
0009,
0001,
0009,
FFEF,
0006,
0015,
000D,
FFF9,
FFFB,
FFE6,
0028,
FFEA,
FFE3,
FFDE,
000E,
FFE4,
FFD8,
0030,
FFD6,
FFE7,
0011,
002C,
004B,
FFEC,
0018,
FFF5,
FFFB,
0022,
0008,
0022,
FFD6,
FFF9,
0004,
FFE2,
FFEB,
FFFE,
FFFA,
FFFE,
0017,
FFE6,
0008,
0025,
002D,
FFEA,
0011,
0008,
FFE3,
FFFF,
000A,
0013,
FFDD,
0002,
003C,
FFF0,
0011,
0000,
FFFB,
FFE8,
002B,
001D,
FFF0,
FFF1,
0014,
FFEA,
001A,
0018,
FFF4,
0025,
001C,
0009,
FFE4,
0020,
FFDE,
FFE1,
FFF9,
000E,
FFFD,
000E,
FFD6,
0004,
0011,
000F,
002E,
0064,
0000,
FFE2,
FFC4,
0028,
0002,
FFF0,
0001,
FFF3,
0035,
FFE2,
FFAB,
0027,
FFF4,
FFDF,
FFEF,
0004,
FFFA,
FFF4,
0009,
0041,
FFE9,
0019,
0007,
0013,
FFFC,
0029,
FFE7,
005C,
0037,
FFED,
FFEE,
002B,
FFED,
FFEC,
0032,
0031,
0016,
0026,
FFE1,
0002,
0034,
0040,
FFD2,
0004,
FFE3,
FFE3,
FFEA,
FFF2,
FFF7,
0031,
FFE2,
0020,
0027,
FFD0,
0002,
FFE2,
002B,
0025,
FFDB,
0020,
FFE2,
FFD4,
0035,
FFEF,
0027,
FFFD,
FFD2,
FFF2,
001A,
0044,
FFF6,
003C,
001C,
0027,
0021,
FFDF,
FFFF,
0006,
003F,
0002,
FFF5,
0029,
002C,
FFFF,
FFFE,
0022,
001E,
000A,
FFFB,
FFF9,
0006,
0017,
0004,
FFF3,
FFC4,
002F,
0027,
000A,
FFF4,
FFD4,
001F,
001D,
005C,
0020,
FFE8,
000D,
0012,
0018,
FFDA,
FFEC,
001C,
0029,
FFFE,
0015,
0009,
FFDA,
FFEA,
0023,
0009,
000A,
FFEA,
0004,
FFE7,
FFFD,
FFDE,
FFF0,
0004,
FFE4,
FFE8,
000B,
0001,
0020,
0005,
002D,
FFFD,
FFDD,
FFDB,
0032,
0008,
0011,
0008,
002E,
002B,
FFF6,
FFDB,
FFE6,
FFF4,
0024,
0040,
FFF2,
0000,
0036,
0023,
0009,
0016,
000A,
0000,
0007,
0010,
FFDF,
FFF2,
0009,
FFFD,
002B,
0026,
001B,
0026,
003F,
FFF4,
0004,
FFDF,
0023,
FFEC,
FFE7,
002E,
002F,
0017,
FFF8,
0015,
FFFC,
FFE5,
000F,
001B,
FFEC,
FFD7,
0026,
FFF6,
FFEE,
000A,
0017,
FFDE,
001D,
FFF8,
0032,
0049,
0032,
FFFD,
0015,
FFE1,
FFE2,
0024,
FFD5,
FFFB,
0012,
0004,
FFDB,
FFFF,
FFF1,
FFFA,
000F,
0007,
FFFD,
0004,
0031,
0003,
FFEE,
0008,
FFCF,
FFE2,
0006,
0009,
0011,
FFE8,
0006,
0025,
FFDC,
001C,
FFEF,
002E,
FFEE,
FFF2,
000A,
0025,
FFFA,
0010,
0033,
000E,
0057,
0000,
002A,
FFCE,
FFE6,
FFE6,
0022,
FFD7,
FFE9,
0009,
002F,
FFBB,
FFEA,
0001,
FFB8,
0002,
FFC3,
FFB6,
FFDA,
FFE5,
0029,
0021,
001A,
FFF0,
0004,
FFF6,
FFDD,
FFE4,
FFD8,
0006,
FFEE,
0012,
FFD5,
FFEF,
FFF7,
002C,
FFE5,
0026,
000C,
FFFD,
FFEB,
004B,
FFDC,
FFFF,
001F,
0005,
FFD4,
FFE4,
000F,
FFD8,
0035,
000D,
000A,
0006,
FFF5,
FFFE,
FFE6,
FFF2,
FFE5,
FFE6,
FFFA,
FFDB,
0013,
001A,
001B,
FFF9,
0002,
0022,
FFEA,
FFEA,
FFED,
FFE7,
FFE6,
0017,
000F,
0013,
001F,
FFDD,
FFCE,
FFE7,
FFFC,
0011,
FFFF,
FFE4,
FFFA,
FFFB,
0022,
0001,
0027,
FFFF,
FFEF,
0029,
0042,
003D,
001D,
FFF1,
FFF5,
0037,
FFF6,
FFF1,
0011,
FFE9,
0018,
0019,
FFED,
0028,
0016,
FFFF,
000F,
0012,
0008,
FFCE,
0009,
0004,
0003,
FFC6,
FFEE,
FFFB,
FFF4,
FFDF,
000D,
FFC6,
FFC5,
FFFC,
FFDB,
FFF5,
0000,
0012,
0016,
FFFB,
0027,
FFF7,
0034,
FFDC,
0003,
0012,
0019,
001F,
FFF6,
FFDE,
0025,
FFFA,
0018,
0014,
0001,
0016,
FFFC,
0010,
FFD4,
FFBC,
0012,
001B,
FFE6,
FFD3,
FFE1,
000D,
FFE4,
FFE5,
000C,
FFED,
FFF6,
FFFD,
001B,
FFF9,
000F,
FFED,
FFD8,
0005,
0022,
002D,
FFE9,
0012,
0001,
FFF9,
FFE6,
001F,
FFE1,
0017,
0035,
FFFA,
FFD6,
FFE3,
FFF5,
0007,
FFC0,
0013,
FFEF,
0031,
FFF7,
0008,
001F,
FFFF,
000B,
0012,
001A,
0007,
FFF1,
0001,
0018,
001B,
FFFA,
FFD8,
FFF2,
002C,
0025,
0017,
0019,
0022,
0002,
001C,
FFF0,
0020,
0012,
FFCC,
0001,
0006,
FFFC,
0001,
0010,
FFEC,
FFF6,
0012,
0018,
001C,
0001,
0017,
FFFA,
FFEC,
0008,
000D,
0005,
FFFB,
FFCF,
FFEE,
0026,
0005,
0019,
FFF4,
002B,
000E,
001A,
0008,
0038,
FFC9,
0010,
0010,
FFEF,
FFF7,
000D,
FFEB,
0009,
000A,
FFED,
FFEA,
0013,
FFEA,
FFE6,
000C,
0005,
0026,
0019,
FFEA,
001D,
001A,
001C,
0002,
0016,
FFEE,
0006,
001E,
FFDC,
001B,
0017,
FFB2,
FFC1,
FFDE,
0014,
FFF4,
0028,
0016,
FFE2,
FFEF,
000D,
FFEA,
FFD6,
FFE3,
0007,
FFDC,
0010,
FFFF,
FFFD,
FFFA,
0000,
FFF1,
0004,
0011,
FFE6,
0034,
FFFF,
0028,
001B,
0013,
FFBB,
FFD1,
FFF0,
FFD0,
FFF2,
0001,
FFE8,
FFE1,
0029,
FFDA,
FFE8,
0011,
FFD0,
FFF9,
0020,
001A,
000F,
FFE3,
0002,
FFF3,
000D,
0035,
001A,
FFDE,
002C,
0023,
FFEC,
FFE5,
002F,
FFF9,
FFF2,
0003,
FFF5,
001E,
FFF0,
002D,
FFF7,
FFF5,
0016,
FFCF,
FFE4,
FFF5,
FFE0,
FFE6,
FF8F,
FFE9,
0025,
0018,
001A,
001A,
001D,
0024,
0021,
0017,
FFDD,
0021,
FFFF,
FFFF,
0031,
FFED,
0000,
FFEA,
FFF9,
0006,
FFE6,
0001,
000C,
FFC0,
0000,
FFE3,
0028,
FFF3,
001D,
0006,
FFFE,
FFCD,
0016,
FFDF,
002C,
0007,
FFFA,
0012,
FFC9,
FFDD,
FFDE,
0011,
0020,
FFF4,
0016,
FFEB,
FFF7,
FFE9,
0006,
FFC6,
0017,
0038,
FFE0,
FFF9,
000F,
001E,
002C,
0008,
0003,
0002,
FFFC,
FFEA,
FFDC,
FFF4,
FFD1,
FFE4,
FFF9,
FFEB,
0026,
FFE9,
FFFA,
FFF5,
0016,
000A,
FFDD,
0015,
FFD2,
FFC8,
FFE9,
FFF9,
0000,
0003,
FFF3,
0010,
FFEC,
0014,
FFE5,
0021,
002E,
FFF3,
FFF7,
FFEE,
0015,
002D,
FFEC,
FFEC,
FFDC,
0005,
0006,
FFEC,
0024,
FFDE,
FFEF,
FFFD,
FFF4,
FFFB,
0033,
0014,
0023,
FFE0,
FFE8,
FFE8,
FFF8,
002F,
FFF3,
FFFB,
002B,
FFE7,
000F,
0024,
0012,
FFF6,
000F,
FFDE,
0023,
000E,
FFF4,
0021,
0003,
004B,
FFE1,
0036,
0035,
FFEE,
FFEB,
FFE8,
FFEC,
FFDE,
000A,
FFD2,
0000,
0029,
0007,
0013,
0011,
0018,
FFEB,
0025,
FFFE,
FFF9,
FFF9,
0017,
FFE4,
FFB7,
0013,
FFDF,
001C,
FFF3,
FFF8,
FFF3,
0020,
FFED,
FFF0,
0006,
FFF5,
001A,
000C,
0008,
FFD3,
0012,
0029,
0008,
0015,
FFEA,
001E,
FFFF,
FFDC,
FFF4,
0023,
0001,
FFDE,
000B,
0015,
FFED,
FFE0,
FFDF,
FFD4,
0026,
FFFA,
0006,
000C,
0005,
FFF5,
0010,
FFDE,
0016,
FFDF,
000B,
FFDC,
0001,
001B,
0026,
0012,
001D,
FFED,
0010,
001A,
FFEA,
0007,
FFE5,
000B,
000D,
0028,
001A,
FFDE,
001C,
FFED,
0003,
FFDB,
FFF1,
0011,
FFFB,
0007,
0003,
FFEC,
FFF4,
0018,
002B,
001A,
FFF0,
0017,
FFEB,
001D,
001E,
FFE5,
FFF1,
FFD8,
0000,
0017,
0009,
FFF7,
FFFB,
001F,
FFE7,
001A,
FFE4,
0019,
FFEF,
FFFC,
FFDA,
FFFF,
FFF3,
FFD6,
FFE9,
FFFE,
FFF7,
0017,
0015,
FFF5,
FFD9,
FFEF,
000F,
000D,
0001,
FFF7,
0006,
000F,
0020,
FFD7,
FFFD,
FFE8,
0012,
000A,
0015,
001F,
0017,
FFFA,
000F,
0000,
FFF7,
001B,
0015,
0027,
001D,
FFF3,
0025,
FFD2,
0040,
FFEB,
0008,
000E,
000D,
001C,
FFE4,
000D,
0016,
FFED,
FFD3,
0007,
FFED,
001C,
0020,
FFD9,
FFE4,
0009,
0014,
0012,
0009,
FFF4,
0009,
FFF8,
0013,
FFE4,
0016,
001B,
0002,
FFE5,
FFDF,
0010,
0025,
0001,
FFD7,
0012,
0004,
FFF1,
000B,
FFFE,
0031,
FFD8,
FFEA,
FFEE,
FFD3,
0022,
000E,
0011,
FFEA,
0007,
000A,
0019,
FFC5,
0018,
FFD3,
FFD6,
FFE6,
000D,
0011,
FFE4,
000C,
001C,
FFEF,
0007,
0036,
0021,
0015,
FFDA,
0026,
0002,
0029,
FFF4,
FFE8,
001A,
0003,
FFDB,
FFFF,
0009,
FFF2,
FFDD,
FFEA,
FFEA,
FFF3,
0027,
FFE3,
000F,
FFD2,
FFF7,
FFE8,
0005,
FFD6,
0013,
0008,
000F,
0001,
FFEC,
001B,
FFCD,
FFFC,
FFF0,
001A,
FFEE,
0016,
001F,
001C,
0007,
000E,
0014,
FFF1,
0014,
FFD5,
FFE5,
FFEF,
FFFB,
FFF3,
000F,
FFF7,
0005,
FFFA,
FFED,
001A,
000F,
FFE9,
FFD2,
FFF1,
FFF0,
FFDD,
FFD8,
0023,
FFEF,
000A,
FFDF,
0036,
FFEA,
FFF3,
FFC7,
000E,
0026,
000A,
0019,
FFDD,
000D,
0008,
FFEE,
0017,
FFE1,
0022,
0004,
001F,
FFE8,
002D,
001F,
002F,
0012,
001B,
FFEA,
0028,
FFF4,
0023,
000B,
FFEC,
0021,
0024,
000E,
FFF7,
0017,
FFE5,
0015,
FFFC,
FFFF,
FFD0,
FFE7,
001D,
FFD6,
0008,
FFFF,
FFE9,
FFDD,
FFF5,
0015,
FFFF,
001E,
FFFF,
0011,
001E,
FFFB,
0009,
FFDB,
0019,
FFE9,
FFF0,
0010,
000C,
FFED,
FFEE,
FFEC,
FFF1,
FFE4,
0024,
FFF4,
002D,
FFCE,
FFFB,
FFF5,
002A,
0011,
0005,
FFFF,
0010,
FFDA,
0005,
0013,
0015,
0026,
FFF3,
0018,
FFF4,
0022,
0004,
FFF8,
FFE9,
0017,
FFDA,
FFEA,
0016,
0031,
FFE6,
FFC3,
FFDE,
FFC9,
FFD9,
0006,
FFFE,
FFF1,
0013,
0010,
FFDC,
FFFC,
000C,
FFF2,
0026,
FFDF,
000F,
001F,
FFE6,
FFE3,
0026,
FFED,
000A,
0011,
0032,
0022,
FFE5,
000D,
FFED,
000C,
0089,
0032,
FFF6,
FFEE,
0035,
002E,
FFF4,
0002,
FFD1,
FFD7,
FFFB,
FFD4,
0010,
001D,
FFF2,
FFEB,
FFDC,
FFF9,
0000,
002F,
0011,
0012,
0019,
0000,
FFE8,
FFF9,
FFEE,
FFF4,
FFEC,
0007,
FFD0,
FFF9,
0028,
0008,
0022,
000E,
FFF5,
0005,
0040,
0009,
FFED,
FFFC,
FFF7,
FFEE,
FFFA,
0019,
0023,
FFE2,
000A,
0011,
0005,
FFEC,
FFDF,
FFE1,
0011,
0028,
000C,
0009,
0017,
001F,
FFE6,
0010,
FFF7,
0026,
001E,
0013,
FFD7,
001B,
000B,
0005,
0029,
FFE6,
001E,
FFFE,
000A,
FFF4,
0037,
FFFE,
FFF1,
FFF7,
FFF7,
0016,
FFFE,
000A,
FFFD,
0003,
0001,
FFE4,
FFFF,
0027,
FFFC,
FFDB,
0024,
0007,
0001,
FFF2,
FFF1,
001E,
000F,
FFFE,
001F,
001B,
FFFE,
0017,
FFEE,
0029,
FFE5,
FFCD,
FFEB,
FFEC,
FFFD,
FFFB,
FFEA,
0006,
0004,
0013,
FFF0,
0006,
0013,
FFF2,
FFF4,
FFE8,
0009,
0004,
000C,
FFF5,
0012,
0018,
FFF3,
FFDB,
001A,
001C,
FFF9,
0002,
FFFA,
FFFE,
FFF8,
FFE5,
0024,
0028,
FFFA,
0013,
0004,
0028,
0018,
0000,
0029,
FFE5,
000D,
FFF1,
FFDA,
0043,
008F,
0053,
FFE7,
0005,
FFE8,
0022,
0016,
FFF2,
FFDB,
0019,
000F,
002F,
000D,
FFFD,
002F,
0018,
001C,
FFF0,
0024,
0025,
FFEF,
FFD1,
FFDF,
002F,
FFEF,
FFFD,
FFE8,
0017,
0002,
0026,
000D,
0006,
FFD7,
000A,
FFE2,
0004,
FFE8,
000F,
FFF8,
0026,
FFDD,
FFEC,
FFF5,
FFE2,
0020,
FFDA,
FFF1,
FFF4,
0020,
FFD8,
0009,
FFDB,
FFFF,
FFDD,
0015,
0026,
FFFF,
FFDD,
0038,
0007,
0014,
0029,
0011,
0009,
001F,
0022,
0014,
0015,
FFDE,
000A,
0028,
002D,
FFF3,
0023,
001E,
FFD7,
FFEA,
FFFF,
FFCD,
FFE0,
0028,
FFFD,
0011,
0032,
001A,
001F,
000E,
FFDA,
0009,
000F,
FFF4,
000B,
FFFB,
FFED,
0031,
FFE5,
002A,
FFED,
0043,
FFE8,
FFE1,
FFFB,
FFEC,
0026,
0045,
FFFB,
FFFD,
FFE1,
0026,
001C,
0029,
FFFB,
0016,
FFF0,
0004,
0002,
FFE9,
FFD5,
0037,
0018,
FFEC,
000C,
0031,
FFDC,
0009,
0020,
001C,
0009,
001F,
0003,
FFF3,
000E,
0011,
FFEB,
000B,
0005,
FFE6,
FFEC,
FFE2,
0031,
FFF1,
FFF3,
FFF2,
0008,
0009,
FFF3,
FFD7,
0020,
FFFA,
0047,
0017,
0011,
FFE1,
0025,
FFE6,
000C,
FFE6,
000E,
0009,
0008,
0007,
FFEA,
FFF4,
0010,
FFD7,
0015,
FFEA,
0026,
FFCF,
0027,
FFE3,
FFDB,
FFDF,
FFEF,
0007,
0005,
0012,
FFDF,
FFFA,
FFF1,
000F,
001A,
FFEA,
0013,
FFDB,
001E,
FFE7,
0010,
FFE4,
FFD5,
FFFB,
002E,
0012,
FFFB,
0018,
0008,
0020,
000F,
0003,
FFFC,
FFF5,
FFE4,
0013,
FFF8,
0003,
FFF7,
FFF6,
0004,
0016,
0007,
0000,
FFF2,
FFF4,
0015,
001E,
0029,
0014,
FFF7,
FFEA,
FFDD,
000C,
0012,
FFED,
0011,
FFF9,
0011,
002E,
000B,
FFE3,
FFD1,
0001,
0010,
FFED,
000B,
0016,
FFE3,
FFDD,
000F,
0001,
0022,
FFF6,
0004,
FFE9,
000D,
000F,
0017,
FFEE,
0017,
000A,
FFE2,
0024,
FFD4,
0011,
FFF3,
0013,
0020,
0020,
FFFD,
FFE5,
0007,
FFEF,
FFD1,
FFF4,
FFE0,
FFED,
001F,
0026,
002C,
0015,
FFE0,
FFF9,
0015,
000B,
000D,
FFF8,
0006,
FFCD,
FFF4,
0000,
FFFE,
FFFA,
FFEF,
000E,
000C,
0011,
002B,
0002,
0018,
FFF6,
FFD2,
0017,
001D,
0001,
0025,
FFE9,
001F,
FFF0,
FFDE,
FFFC,
FFDF,
FFE8,
FFF4,
FFE1,
FFDC,
FFEA,
FFF7,
0016,
001B,
0003,
FFE5,
000C,
FFF2,
0006,
FFEF,
FFFF,
0013,
0001,
000E,
FFE4,
0012,
FFFF,
0014,
FFD7,
0020,
0015,
0005,
0014,
0001,
FFF1,
FFDF,
FFFC,
FFF7,
0020,
FFF5,
FFDF,
FFFB,
FFF8,
001C,
000B,
FFFA,
FFD9,
FFD5,
001F,
0006,
FFF4,
FFF5,
0023,
FFF2,
0028,
0009,
FFF8,
000B,
FFF0,
FFF5,
0000,
FFE3,
FFEE,
FFE6,
FFE5,
0022,
003D,
0028,
0014,
FFFE,
0004,
FFFD,
001F,
0020,
FFF7,
FFE3,
0014,
000A,
FFFA,
0013,
0010,
FFE5,
0022,
FFD8,
FFFF,
FFE3,
0013,
FFF6,
0018,
0000,
FFEA,
0017,
FFF1,
001A,
FFE5,
FFD3,
FFD2,
000D,
0002,
FFF0,
0001,
FFD8,
FFDC,
0000,
FFDD,
FFE3,
FFFE,
FFF2,
FFF1,
000E,
0014,
0003,
FFEA,
FFFF,
0012,
FFE7,
0010,
0008,
FFD7,
0006,
0006,
FFE3,
FFEC,
0008,
000C,
001B,
FFF3,
0026,
0012,
0009,
0003,
FFEE,
FFD7,
000A,
001B,
0009,
0004,
0022,
FFD8,
FFDF,
FFF8,
000A,
001C,
0021,
0007,
000C,
0020,
000E,
0000,
FFEB,
FFF3,
001C,
FFD4,
000F,
0005,
FFF2,
FFDD,
FFDC,
FFF3,
FFE5,
0009,
FFE1,
FFEE,
FFF8,
003A,
0020,
001D,
0002,
FFD4,
FFF2,
0006,
000B,
001C,
FFD5,
FFE8,
0012,
0013,
FFEE,
0010,
0019,
FFFA,
FFF6,
FFFE,
FFEE,
FFD4,
000E,
0003,
FFDA,
0001,
FFF1,
001E,
FFE7,
001A,
000E,
0003,
0008,
000B,
001D,
FFE8,
FFEC,
FFEF,
FFFF,
FFE9,
001C,
FFF4,
0020,
000B,
FFDB,
0001,
000E,
FFE5,
0005,
0009,
FFDB,
FFD8,
FFFC,
000F,
FFE7,
FFE3,
FFE7,
0005,
FFED,
FFED,
FFFD,
FFF7,
FFF7,
0013,
FFD9,
FFF1,
FFF2,
000A,
FFE1,
0002,
FFD3,
0017,
0007,
FFFC,
FFD5,
0018,
001A,
001B,
FFE7,
FFFB,
FFE4,
FFE8,
FFD9,
0011,
FFF3,
000E,
FFF0,
0004,
0004,
FFDC,
FFD4,
0011,
FFF4,
FFFD,
FFFA,
0001,
0013,
FFED,
FFF4,
FFDB,
FFFF,
0015,
FFE6,
FFF0,
FFED,
0025,
FFD9,
000A,
FFE1,
FFDC,
001C,
FFFE,
000E,
FFF2,
FFD4,
0000,
0007,
001B,
FFE7,
0020,
001F,
FFE5,
FFEE,
001F,
000E,
FFD5,
FFD8,
FFD9,
FFEA,
0007,
FFE9,
001F,
FFFA,
0016,
FFDD,
0022,
0004,
0018,
000B,
FFD8,
0014,
FFEF,
FFE3,
0012,
FFD8,
000B,
FFD7,
FFD7,
000C,
0008,
001B,
001D,
FFD9,
001C,
001A,
0000,
0010,
0013,
FFDA,
0016,
000C,
FFD7,
0013,
0010,
000C,
FFEE,
0002,
0016,
0010,
FFE0,
FFF1,
001F,
0016,
FFE9,
FFDC,
001B,
0024,
FFE4,
FFDD,
FFF4,
FFF9,
0001,
0012,
FFEE,
0016,
FFE1,
0014,
FFF8,
FFEB,
0003,
0007,
0011,
FFF1,
FFFD,
FFE2,
FFE3,
FFDD,
000E,
FFFA,
0003,
FFEA,
000E,
FFDB,
FFFF,
FFE0,
FFD4,
FFD9,
001C,
001F,
000F,
0004,
0021,
FFE2,
0018,
000B,
0014,
000D,
FFF5,
FFDB,
FFE5,
FFF6,
0012,
FFF5,
0018,
FFFE,
FFDC,
FFDE,
FFFA,
0015,
FFF9,
0019,
0017,
0022,
0009,
0000,
FFE9,
FFE9,
FFDB,
FFE3,
0009,
0009,
FFDC,
0001,
0018,
FFDD,
0016,
FFF8,
FFD8,
000B,
0004,
FFD8,
001B,
FFE3,
FFF4,
FFF3,
FFE1,
0008,
FFFE,
FFE1,
FFF5,
0017,
FFE1,
0007,
000E,
FFE0,
FFE5,
0012,
FFFB,
0017,
000B,
FFF4,
FFF3,
FFE7,
FFF3,
FFE6,
FFD9,
FFDF,
FFF6,
FFE8,
FFE6,
FFEE,
FFF3,
FFE6,
FFF2,
0001,
FFDC,
FFF5,
FFEB,
FFDE,
000D,
FFF1,
001A,
FFE4,
FFE7,
0018,
0002,
0017,
FFED,
FFD4,
0004,
FFEA,
FFF8,
FFDE,
0007,
FFF5,
0004,
0020,
FFFF,
001B,
FFEA,
0021,
0039,
000F,
FFF3,
FFE6,
FFE4,
FFFE,
0000,
0015,
FFE7,
FFE9,
0018,
001E,
FFF9,
0027,
FFE0,
0004,
000D,
0004,
0017,
0003,
0014,
000D,
000D,
000C,
FFE4,
0002,
FFE1,
0013,
FFF2,
0073,
FFF9,
000D,
001D,
FFD3,
0035,
000A,
FFE1,
0011,
FFED,
0009,
FFF9,
FFEF,
0005,
001F,
FFE4,
0042,
0019,
000A,
FFE3,
FFDC,
FFC3,
002C,
0000,
FFF4,
0016,
FFE8,
0038,
0015,
0001,
FFFF,
0014,
0020,
0017,
FFD3,
0022,
FFEE,
FFE6,
000D,
FFF0,
FFE9,
0034,
001C,
FFE7,
004D,
0005,
FFF7,
FFFD,
002A,
000B,
FFF0,
0034,
0012,
000B,
FFF8,
FFED,
0019,
FFE5,
FFE6,
0028,
0011,
FFF6,
FFF8,
FFDC,
FFD7,
0022,
0026,
0016,
0038,
FFF3,
001B,
001E,
FFE0,
0014,
FFF8,
FFF6,
0045,
FFCF,
002A,
0019,
0031,
001D,
FFE1,
FFEA,
0023,
FFF5,
FFE8,
0011,
0019,
0021,
FFEB,
0020,
FFEF,
FFE6,
FFD7,
FFFE,
FFF6,
000B,
0023,
001E,
FFDF,
0005,
001E,
FFF8,
0018,
FFF3,
FFD6,
FFF2,
0007,
0019,
001C,
FFF2,
000D,
FFF8,
FFD4,
0025,
FFF5,
001D,
FFF0,
FFF9,
0024,
002A,
FFFE,
FFE8,
001D,
FFE6,
FFD9,
FFD5,
0038,
FFDC,
0020,
FFF7,
0017,
FFE4,
FFD9,
0024,
0010,
FFE1,
FFF2,
0048,
0007,
001F,
FFEC,
FFA0,
FFE8,
0026,
FFDF,
FFFD,
FFE2,
0000,
FFF4,
FFE8,
FFF6,
0009,
0023,
FFE4,
FFEA,
FFFF,
002E,
FFD7,
FFFC,
FFE6,
FFE6,
FFDF,
FFD6,
FFEE,
FFE9,
FFB4,
0009,
0020,
0003,
001F,
FFFF,
FFFA,
FFC7,
FFEC,
FFFB,
0007,
FFD1,
FFE4,
0007,
0026,
0022,
FFF6,
FFF5,
FFE1,
0002,
FFD9,
FF9A,
FFDF,
001E,
002D,
0028,
0022,
0013,
0005,
000E,
000A,
FFF5,
0015,
000D,
002A,
FFE1,
FFFA,
FFDD,
0034,
FFE7,
FFE3,
0036,
FFD6,
0030,
001F,
0005,
FF92,
FFF1,
FFF5,
0019,
0017,
FFE5,
FFF5,
0015,
FFD9,
FFDF,
FFD0,
FFC1,
FFFD,
FFDA,
FF9C,
FFB4,
0008,
0017,
FFEC,
0020,
FFE5,
0027,
0013,
0020,
FFDA,
FFF3,
001E,
0017,
0031,
FFE4,
0006,
FFF9,
0020,
0003,
000C,
003E,
0007,
FFD0,
0013,
001B,
0026,
FFEC,
FFFD,
FFDE,
0018,
000D,
FFE1,
FFF9,
FFEF,
001C,
FFF7,
FFE3,
0003,
FFFA,
0018,
FFE2,
0021,
0016,
FFF8,
0014,
FFDE,
0014,
0010,
0035,
000B,
FFFB,
0004,
000F,
FFF1,
0019,
0027,
002D,
000D,
0028,
FFE5,
FFFC,
FFEE,
FFF5,
0006,
FFF6,
002A,
001A,
001E,
0002,
001A,
0007,
FFF6,
FFAD,
FFF4,
0004,
003D,
0018,
0008,
0012,
000B,
000B,
0021,
FFFE,
002B,
0005,
000D,
FFFE,
001C,
000C,
0029,
0024,
FFF9,
0009,
FFC8,
FFF9,
FFED,
0003,
FFD6,
0025,
0029,
FFE6,
000F,
FFD1,
FFCC,
0015,
0019,
0022,
0023,
0003,
0002,
000D,
FFFA,
000C,
0007,
0020,
FFDC,
0006,
FFD2,
0023,
FFE5,
FFEB,
FFE8,
000C,
000E,
0019,
0013,
0027,
FFFC,
000D,
0013,
0013,
000C,
FFFB,
FFFF,
FFF2,
0003,
FFFB,
FFE2,
FFF6,
FFE1,
0009,
FFD3,
FFFC,
FFDA,
FFF8,
0013,
0022,
0002,
FFEB,
FFF2,
0024,
002E,
FFE7,
FFF6,
000E,
FFF1,
0028,
FFEA,
FFE3,
000B,
001F,
0017,
FFDB,
0007,
FFFB,
0036,
FFD4,
0038,
0007,
001A,
FFEE,
0012,
0019,
FFDC,
0011,
FFFB,
0006,
FFE2,
FFF5,
001E,
000A,
0023,
0023,
0010,
001B,
0044,
0004,
FFE0,
FFEC,
0003,
0027,
0000,
FFEC,
FFE2,
FFE6,
FFCA,
0019,
FFFB,
0022,
FFF6,
0019,
001B,
0019,
0000,
FFF9,
0002,
FFDC,
0006,
FFF6,
FFEF,
0000,
0004,
0011,
FFEB,
FFF7,
0017,
003A,
FFF7,
001E,
FFFF,
0000,
FFFA,
FFF0,
FFF5,
0022,
FFBF,
FFF6,
0013,
0021,
0007,
000B,
0022,
0016,
0006,
0029,
FFFE,
000D,
000A,
FFDC,
FFF3,
0012,
FFF0,
0017,
0020,
0020,
FFF2,
FFF8,
FFEC,
001F,
FFE7,
FFFC,
FFF7,
FFDA,
0024,
FFFB,
FFCA,
FFE8,
FFDB,
0007,
000C,
002E,
001E,
0011,
FFF5,
0007,
001D,
FFE8,
FFF8,
0006,
FFF7,
000B,
FFE6,
0023,
001A,
FFFC,
FFF0,
002A,
0003,
FFFB,
002B,
FFF2,
0022,
FFEE,
FFF6,
FFC0,
0005,
0016,
FFE2,
FFBD,
001F,
001D,
0016,
FFED,
FFDE,
FFF6,
FFF3,
FFDB,
0007,
0002,
FFFF,
FFC0,
0011,
FFE6,
FFED,
0023,
0023,
FFF9,
000D,
FFF1,
FFF2,
0002,
0008,
FFFF,
FFEA,
0000,
FFFE,
FFE3,
FFE5,
000C,
FFE6,
FFD4,
0026,
FFEB,
0016,
0005,
FFDD,
FFD4,
0016,
FF9F,
001D,
001D,
002A,
0018,
0009,
0018,
FFE0,
FFE6,
0013,
FFFB,
001D,
0027,
000C,
FFF7,
FFE0,
FFE5,
001B,
FFE0,
FFF4,
FFFF,
0018,
FFDF,
FFD2,
001C,
FFC6,
000C,
003B,
000D,
000C,
000F,
FF9F,
000D,
0001,
0025,
FFF2,
FFF0,
0029,
FFE5,
FFC7,
002F,
002A,
0023,
002B,
0011,
FFD3,
0008,
001D,
0016,
FFCE,
002C,
0013,
0037,
FFE8,
003C,
0035,
0022,
FFF2,
FFDE,
001E,
FFF4,
0029,
FFF6,
FFC4,
FFE9,
FFD9,
FFE7,
FFF9,
001F,
FFEF,
FFDE,
FFFB,
0015,
FFFD,
001F,
FFF8,
FF9B,
FFEB,
0016,
FFF0,
FFFA,
0001,
FFE7,
0026,
FFFE,
0010,
FFFB,
0015,
0024,
FFF8,
FFE5,
FFF6,
000E,
0010,
FFF3,
FFCA,
FFC2,
0010,
0001,
000C,
FFF3,
FFCA,
0015,
0006,
FFDB,
0015,
000C,
0007,
0019,
0000,
FFF3,
FFF4,
FFDA,
FFE9,
FFFF,
FFF7,
0009,
FFE8,
0029,
FFF2,
FFED,
0001,
FFFF,
FFBA,
0038,
FFE7,
0038,
FFFD,
0034,
0010,
0016,
0014,
002A,
FFFF,
FFE7,
0030,
FFEE,
FFC9,
0024,
FFEC,
FFE7,
FFF9,
FFF8,
0003,
0012,
000D,
000A,
0035,
0008,
0005,
FFEB,
0013,
FFF8,
FFCE,
0024,
FFFB,
FFFA,
0023,
FFED,
0010,
FFF3,
0006,
FFFE,
FFCC,
FFE5,
FFDE,
001E,
0001,
FFF6,
FFE0,
0027,
FFE4,
FFE2,
FFD8,
0020,
0017,
FFE8,
0018,
0005,
0023,
0021,
FFFB,
001E,
0028,
003D,
FFE2,
FFC3,
FFD4,
FFD0,
0014,
001D,
FFDE,
FFE2,
0026,
000D,
FFE4,
FFE7,
FFD3,
000B,
FFFF,
FFBD,
001F,
FFD6,
0022,
0001,
FFFD,
0012,
0026,
0017,
FFE6,
FFE3,
FFE8,
003A,
0000,
FFE2,
002A,
0035,
FFFB,
000E,
0024,
0014,
000D,
FFF0,
FFE6,
0017,
0012,
FFED,
0024,
FFF7,
001C,
FFF8,
0011,
002D,
FFFD,
FFFE,
FFF8,
0028,
FFEA,
0015,
0009,
FFEC,
0007,
0024,
FFE9,
FFF5,
0011,
FFFD,
0010,
FFE0,
FFEA,
FFD8,
000A,
0011,
000D,
FFFF,
FFEC,
005C,
0012,
0012,
FFBE,
0013,
000D,
0014,
001E,
FFDB,
FFF4,
FFEE,
FFE5,
002A,
0006,
FFF9,
001D,
FFEA,
FFC9,
0000,
000E,
000B,
FFE5,
0022,
0029,
0022,
0059,
0006,
FFF1,
FFF2,
FFFB,
0006,
0070,
0017,
0009,
FFF9,
FFC7,
0031,
FFFA,
0002,
001B,
001A,
0015,
0014,
FFFF,
002F,
002F,
0019,
FFE2,
001E,
0016,
FFDB,
FFF5,
0020,
001E,
FFDC,
001C,
FFF5,
FFE4,
FFD8,
FFE0,
FFC0,
FFE3,
0024,
FFDE,
FFF1,
FFE9,
FFE2,
FFFA,
FFE2,
004D,
001C,
0003,
001B,
FFD3,
FFD5,
0016,
0056,
0012,
002D,
000B,
0036,
FFF0,
FFE6,
FFF5,
FFF5,
001F,
001C,
FFF2,
FFC5,
FFF5,
0007,
FFF4,
000C,
0009,
FFF6,
FFE6,
FFE9,
FFE8,
0004,
FFEE,
001A,
0017,
0016,
0036,
FFE4,
FFDF,
0017,
0002,
0032,
0019,
0013,
000F,
FFF4,
0004,
000E,
0012,
FFF8,
FFFC,
FFF7,
FFDF,
0019,
FFF8,
0021,
0024,
000A,
002B,
FFEE,
0011,
FFF3,
001E,
FFDF,
000F,
0003,
FFC8,
0003,
FFDD,
0029,
FFE7,
0003,
001E,
0007,
FFFA,
002A,
0024,
0023,
FFF0,
FFF2,
FFE6,
FFEF,
FFFA,
0011,
FFFB,
FFE7,
0042,
0001,
FFFA,
FFDC,
0020,
FFFD,
0009,
0019,
FFF8,
0009,
FFF6,
FFFD,
FFC9,
0010,
001F,
FFBD,
FFF5,
FFDD,
FFE7,
FFE2,
FFD6,
FFF8,
001A,
FFFF,
000E,
FFF1,
0016,
FFF9,
001A,
0023,
000C,
0003,
0026,
000C,
FFD9,
FFE8,
FFEB,
FFFE,
0021,
FFF4,
FFF6,
0023,
FFC8,
FFE2,
0012,
FFE4,
0013,
FFD7,
FFD6,
FFFA,
FFD9,
FFDC,
FFEC,
002F,
FFF0,
0000,
FFE8,
000D,
0008,
001A,
FFF9,
0013,
001A,
FFE5,
0001,
0006,
001B,
0017,
0015,
FFF5,
FFE9,
FFFC,
0002,
0020,
0019,
0007,
0013,
FFDF,
FFE5,
0018,
001C,
FFF2,
0020,
0015,
000A,
0006,
FFE4,
FFDD,
FFEB,
0024,
0008,
0019,
0007,
001E,
FFFC,
0026,
FFDD,
0012,
0000,
FFDE,
FFF2,
FFF6,
FFEA,
0050,
FFD7,
FFF1,
FFE4,
0001,
FFD8,
0013,
FFED,
001B,
FFE9,
0003,
0022,
000E,
0011,
FFEF,
0002,
FFEC,
000E,
FFED,
FFF6,
002A,
001D,
000B,
000B,
FFF6,
001A,
FFE6,
FFE1,
FFE4,
002F,
0007,
0046,
000C,
001B,
FFFC,
0004,
001C,
0016,
FFFF,
FFEC,
FFE9,
FFEF,
0012,
001C,
0000,
FFE6,
0024,
FFE2,
0020,
FFFD,
FFFA,
FFE0,
0022,
FFEC,
FFEE,
000D,
0008,
FFF8,
000C,
0016,
FFEE,
FFF9,
0016,
000B,
000F,
0000,
0007,
001B,
FFF8,
001C,
0014,
0000,
0003,
FFE6,
FFDF,
0013,
000B,
0003,
001E,
0022,
0006,
001A,
0020,
FFFB,
0026,
FFFB,
001E,
0003,
FFE4,
0031,
FFE9,
0020,
0023,
0014,
0005,
FFFD,
0017,
FFC2,
0007,
FFE5,
0016,
0008,
000D,
001A,
FFE0,
FFFA,
000F,
000A,
0025,
FFF8,
0027,
000B,
FFE5,
000A,
0016,
0008,
000B,
0019,
FFF4,
0007,
FFE0,
0010,
000C,
0014,
001E,
FFF5,
FFEA,
FFDA,
000A,
FFF8,
0033,
FFD9,
FFE4,
0000,
0014,
0000,
001D,
FFEA,
FFD3,
0021,
0022,
FFEF,
FFE2,
0020,
FFCA,
FFFB,
0006,
FFCE,
0011,
FFEA,
FFDE,
FFDB,
0001,
FFEE,
0018,
FFF7,
FFE7,
0023,
0020,
0013,
FFFC,
0001,
0010,
0015,
FFFC,
FFFB,
002D,
001C,
000F,
FFEB,
FFE6,
FFF7,
0006,
0027,
FFF9,
FFF2,
000F,
0038,
001A,
FFEE,
0030,
001B,
FFF2,
FFE8,
000C,
FFE5,
FFEF,
FFFE,
0018,
001C,
FFEF,
FFF8,
FFF3,
FFD9,
000D,
FFDB,
FFD9,
001C,
001D,
002D,
0017,
FFD6,
0009,
FFF2,
FFF3,
0042,
FFF9,
0035,
FFF7,
0016,
FFFA,
FFFA,
0002,
FFD8,
FFFC,
FFD2,
FFF1,
FFDD,
FFFB,
FFD7,
FFFE,
FFE6,
0025,
FFE6,
0000,
FFDB,
001E,
FFEA,
0005,
FFE5,
FFEB,
FFDC,
000C,
FFFD,
FFF5,
FFF8,
001A,
FFEF,
0012,
002F,
0003,
0025,
FFF5,
0027,
000F,
0025,
0000,
FFF6,
0020,
FFF4,
FFC5,
FFFD,
0009,
002A,
FFD7,
0012,
FF99,
FFEB,
FFF9,
001A,
001A,
0008,
FFFF,
0021,
FFF5,
FFE9,
0035,
FFEF,
001F,
0022,
FFF7,
FFEE,
FFE5,
0035,
001C,
0008,
0035,
FFE8,
FFFE,
001C,
0019,
0006,
0033,
FFE0,
000B,
FFFB,
FFEC,
FFEA,
0025,
0027,
0033,
FFE8,
000B,
0008,
FFCF,
FFD6,
000E,
001D,
FFD8,
0036,
0001,
0005,
FFE9,
002A,
0029,
FFE7,
FFF2,
000E,
0038,
FFE3,
FFEB,
FFDE,
0001,
FFD2,
FFEB,
FFDD,
FFF2,
0003,
0024,
0019,
FFE8,
FFF2,
000B,
001E,
FFFA,
FFB6,
000C,
FFDE,
001A,
0002,
FFE2,
0002,
FFB8,
FFF8,
0002,
FFF7,
FFD4,
0030,
FFF3,
001E,
FFF2,
0025,
0012,
FFF7,
0025,
FFE7,
0006,
FFF9,
0000,
0007,
FFFA,
000C,
FFDA,
0025,
001C,
001B,
0002,
FFD6,
FFE8,
FFE2,
FFEC,
0000,
0009,
FFFE,
FFCF,
FFF4,
000C,
001E,
0023,
0002,
000F,
FFE5,
FFF1,
0021,
FFD7,
000D,
FFFA,
FFE6,
0020,
FF5B,
FFF7,
0013,
FFE0,
0018,
0013,
0045,
001A,
0002,
FFF1,
0019,
001E,
FFFC,
FFF7,
0012,
FFF5,
FFFA,
FFDC,
0029,
0014,
FFEA,
0003,
001F,
FFD9,
0015,
FFE7,
002B,
000A,
FFE4,
FFF3,
FFCD,
FFF2,
0013,
FFF9,
002F,
FFF9,
000E,
FFFC,
0031,
FFF9,
001A,
000D,
0017,
FFE0,
001F,
0036,
0001,
FFF1,
0010,
FFE2,
FFEA,
FFDA,
0016,
FFEE,
000A,
002D,
FFF1,
0021,
000A,
001D,
0005,
FFE4,
0009,
FFD6,
FFED,
0007,
FFEC,
000F,
FFE5,
0009,
FFFD,
0009,
0018,
0022,
0009,
FFF8,
0013,
0021,
FFF1,
FFFB,
FFE4,
0027,
FFF5,
FFEA,
FFFF,
FFDE,
0014,
FFD9,
000D,
0017,
001A,
FFF8,
0009,
0015,
FFF7,
001C,
FFEC,
FFF3,
0013,
0012,
FFEC,
FFDC,
0013,
0021,
0015,
0017,
FFF5,
FFE5,
0013,
001C,
0006,
FFE6,
0014,
FFE1,
0001,
FFE8,
0004,
001F,
FFF1,
001A,
FFED,
FFDA,
0003,
0003,
FFF2,
FFF1,
FFE3,
FFF4,
FFE3,
FFFA,
000C,
FFDE,
FFEC,
0005,
0010,
001F,
0012,
0019,
FFE5,
001B,
0008,
FFEF,
001B,
0005,
FFF7,
FFF2,
000E,
001A,
FFF6,
0007,
0025,
FFE9,
FFE3,
000F,
FFF6,
0024,
FFEA,
FFF8,
0022,
FFFC,
0008,
0013,
FFDE,
FFDE,
FFED,
FFE0,
FFFF,
0020,
001F,
000E,
FFFC,
001B,
0005,
FFED,
0003,
FFFD,
FFE9,
FFEE,
FFEE,
FFDF,
002B,
000F,
FFE4,
FFED,
0011,
0005,
FFDA,
FFE1,
0015,
001D,
0005,
FFF2,
FFF0,
FFEA,
000C,
0001,
FFFA,
0011,
FFDC,
0005,
FFDD,
FFE6,
FFE1,
001B,
FFF9,
0001,
FFE5,
FFE8,
FFE1,
FFD2,
FFD9,
001E,
FFF0,
FFED,
FFEE,
0021,
0016,
FFE6,
0009,
0011,
001B,
001B,
FFF7,
000A,
FFEC,
001C,
0017,
001C,
FFE4,
0008,
0015,
FFD7,
FFFE,
000A,
FFEE,
0021,
FFE5,
0018,
FFFE,
FFF7,
FFF4,
0009,
FFF3,
000B,
0006,
FFEF,
000D,
0012,
0010,
FFE8,
0009,
FFE7,
FFE1,
FFE1,
0004,
FFE1,
FFD7,
0011,
000E,
FFED,
FFE2,
FFD8,
0006,
FFF2,
0017,
000F,
001E,
FFEF,
0015,
0012,
FFF0,
FFFE,
FFFE,
000E,
0029,
0002,
001F,
FFF7,
000A,
FFF6,
FFDC,
FFE5,
001B,
0006,
FFF4,
FFFC,
000E,
FFEA,
0021,
0003,
FFF0,
0027,
0013,
0001,
0019,
000F,
0008,
000A,
001C,
FFE7,
FFF6,
FFD9,
FFE8,
FFE2,
FFE1,
FFE8,
0002,
FFF9,
FFE4,
0022,
0018,
FFEF,
0004,
FFDF,
FFED,
0057,
0021,
0030,
000A,
FFD0,
0011,
FFD0,
FFE8,
FFE7,
FFED,
FFE2,
FFFB,
0018,
FFF3,
FFF1,
FFE6,
001D,
FFE5,
FFFA,
FFEA,
0019,
FFF2,
FFE3,
0006,
0017,
FFDD,
FFE6,
FFDF,
FFF5,
0024,
0046,
002B,
FFEE,
FFFC,
FFFC,
FFEA,
000E,
FFDF,
FFF2,
000D,
FFE5,
0020,
0023,
002F,
000C,
0006,
FFEF,
001B,
0022,
000B,
FFE1,
001E,
FFD9,
FFFD,
FFFF,
FFE5,
0011,
FFF0,
FFF0,
FFFE,
FFF3,
000B,
0021,
000E,
0007,
FFED,
FFE7,
0010,
FFFF,
0000,
FFF0,
FFE1,
FFED,
FFF9,
0052,
FFE9,
FFCF,
001A,
FFE5,
0000,
FFE1,
FFE8,
0014,
0018,
0014,
FFDC,
FFFE,
FFEE,
FFEB,
FFD7,
000F,
FFDE,
0025,
0003,
FFE0,
0020,
FFEA,
FFC6,
0002,
0048,
0014,
FFF2,
0018,
0015,
FFE7,
0047,
002B,
FFE7,
002E,
FFF2,
FFF4,
FFF5,
0006,
FFD2,
FFF9,
000B,
FFEC,
FFFD,
000A,
FFFF,
FFD5,
0029,
FFD7,
001E,
0011,
FFD5,
FFD1,
0023,
0008,
FFEC,
0026,
0008,
0010,
FFFC,
0003,
FFCD,
FFFF,
000A,
0018,
0022,
FFE4,
000D,
FFDD,
0023,
FFCE,
FFFA,
0009,
0001,
FFF7,
0026,
0033,
FFEA,
001D,
FFE4,
0001,
0000,
001D,
FFF3,
001B,
FFF0,
FFF9,
0019,
0005,
FFFE,
0014,
0010,
0015,
FFFD,
0021,
0020,
0021,
FFC7,
0005,
FFCF,
FFF6,
002C,
001A,
FFFD,
FFDC,
FFFF,
002B,
0023,
FFFD,
0001,
001A,
FFFA,
0005,
FFD1,
0025,
FFF0,
0000,
FFE2,
0010,
0018,
001C,
001E,
FFF3,
0077,
000D,
000A,
0026,
FFDE,
FFDF,
FFE1,
0007,
0021,
0000,
FFE1,
0029,
FFEA,
000C,
FFE2,
FFD0,
001F,
002B,
FFF1,
0020,
0012,
0010,
FFE1,
FFED,
FFEF,
0013,
001C,
FFE2,
FFF2,
FFF9,
0043,
0004,
FFF6,
0002,
0022,
0019,
000A,
FFE6,
0005,
FFE7,
0008,
002C,
0017,
0033,
000E,
FFD6,
FFE9,
FFE5,
001C,
0007,
0004,
FFED,
FFEB,
FFF7,
FFE8,
001C,
002B,
0004,
000B,
FFAC,
FFDD,
FF9C,
0011,
0007,
0001,
0039,
FFE0,
0028,
0002,
0007,
0025,
FFE2,
0038,
FFED,
FFFF,
FFEF,
0011,
FFE8,
FFDC,
0012,
FFE4,
0025,
002C,
FFFD,
FFFB,
FFFD,
000B,
FFCF,
0008,
0012,
FFCE,
0012,
FFF6,
FFF7,
0021,
000C,
0004,
FFED,
0013,
FFDD,
0002,
000A,
0015,
002B,
0021,
0000,
FFF0,
FFE6,
FFD5,
0002,
001D,
0019,
0004,
0021,
FFF2,
FFC9,
000F,
000E,
0005,
FFF5,
FFEC,
0015,
000D,
0017,
FFE7,
FFD4,
FFFB,
0013,
0020,
FFFF,
002C,
FFEC,
FFF9,
FFB0,
FFEF,
0047,
002E,
0004,
0017,
002E,
0019,
FFE4,
000C,
FFEE,
0005,
FFFB,
FFF7,
FFFF,
002A,
000B,
0017,
FFDF,
FFDF,
0020,
FFD5,
FFEC,
002C,
FFFF,
FFE9,
FFE0,
0009,
FFFF,
0009,
FFDA,
FFCA,
FFCE,
002E,
001B,
FFD1,
FFDB,
0002,
000C,
0027,
0031,
002D,
0020,
0006,
001E,
FFF7,
FFF9,
001D,
0019,
FFD3,
FFFB,
0020,
0037,
0040,
0001,
001B,
FFDF,
0006,
FFF0,
FFE0,
0023,
0027,
004D,
0007,
0007,
000B,
0002,
FFDE,
FFF7,
FFE1,
0007,
FFB7,
0000,
FFF7,
001B,
000B,
FFCD,
FFF5,
0007,
000C,
FFF5,
FFF7,
FFF7,
FFEE,
0022,
001B,
000A,
FFE0,
0011,
FFE7,
0015,
FFFF,
000C,
002E,
FFC2,
001D,
FFE5,
0002,
0029,
0036,
0014,
0019,
FFF9,
FFF8,
0019,
FFE3,
001B,
0014,
0002,
0026,
000E,
FFFA,
FFF7,
0015,
0006,
0013,
FFDA,
0013,
FFE2,
FFDD,
FFDE,
0010,
0019,
FFC8,
000E,
FFED,
FFD1,
FFFB,
0020,
0018,
0019,
000E,
FFED,
0032,
FFEF,
FFDD,
0018,
FFDE,
0008,
001E,
FFE5,
0025,
FFFA,
001D,
002B,
FFEE,
0015,
0026,
0026,
0023,
FFF8,
FFFD,
FFE4,
0016,
FFFE,
0010,
FFEF,
0007,
FFFD,
0008,
0018,
002D,
FFF8,
0025,
0001,
001B,
FFC4,
000D,
001D,
FFFF,
FFDD,
FFE5,
000A,
001D,
FFDF,
FFDC,
0023,
0000,
FFED,
FFF7,
FFF2,
0006,
FFF5,
FFBF,
FFE5,
FFF9,
000B,
0020,
FFFB,
FFD7,
0008,
FFF8,
FFF2,
FFFE,
FFFE,
FFCE,
FFD6,
0035,
FFF1,
FFF5,
FFEC,
FFC6,
0027,
FFE0,
FFFF,
0021,
FFE3,
0019,
FFDC,
FFF7,
FFED,
FFE5,
FFD4,
002E,
0018,
0025,
FFE8,
000B,
0010,
0028,
0023,
FFDC,
FFE1,
0019,
0001,
0012,
0017,
0027,
000D,
FFFB,
FFCF,
FFD8,
0016,
002E,
0005,
FFE4,
0024,
000B,
FFB5,
002E,
FFE4,
FFBE,
0004,
0007,
FFDF,
0019,
FFFF,
FFEE,
FFF8,
000C,
FFC8,
FFF0,
FFF7,
FFE9,
0002,
0005,
FFEE,
0001,
FFB9,
0010,
000F,
FFEC,
FFF7,
004D,
FFEC,
FFD2,
0028,
001A,
002C,
0010,
FFFD,
002A,
FFF4,
0027,
FFEB,
FFFE,
0029,
FFFB,
FFEE,
002B,
FFFC,
0022,
000E,
001E,
002F,
0015,
0015,
FFEF,
002B,
003F,
001E,
0020,
FFEE,
FFF3,
000E,
0016,
FFD5,
001A,
FFE6,
000C,
000C,
FFFF,
FFD7,
FFF1,
FFE0,
FFDD,
000C,
0013,
0020,
002D,
FFF0,
0002,
FFEC,
0011,
0033,
0022,
0005,
FFDF,
000D,
0004,
002C,
FFE7,
FFF2,
FFEA,
FFF4,
FFE3,
001D,
FFE3,
000F,
0009,
FFE4,
FFD8,
FFBF,
FFE9,
001D,
FFF1,
FFE2,
FFE7,
FFDD,
FFD8,
FFEE,
FFEF,
FFFB,
002C,
0005,
FFE7,
0011,
FFF7,
FFF6,
FFD8,
0036,
0032,
0022,
0019,
FFF7,
0026,
FFF8,
FFE5,
FFFD,
FFD8,
FFE0,
FFE1,
FFFF,
002F,
FFD6,
FFE4,
0039,
0000,
0024,
FFFC,
0005,
FFFB,
FFDE,
0007,
FFC4,
FFE3,
FFFF,
FFE7,
FFFE,
FFE8,
FFE9,
002C,
FFD7,
000F,
0020,
FFEB,
FFE0,
0004,
FFCB,
0033,
FFFD,
FFFF,
FFED,
FFE0,
FFF5,
FFF0,
FFEC,
FFFF,
0012,
FFF0,
FFF8,
FFD2,
FFE2,
0013,
0008,
FFEC,
FFDB,
FFD2,
FFAB,
0005,
0021,
FFF8,
001B,
0011,
000A,
FFF0,
0002,
FFD5,
001A,
0018,
FFEB,
FFE5,
FFEE,
001C,
0008,
FFE3,
FFE8,
FFFC,
FFFC,
0012,
0006,
0000,
001F,
0018,
FFE5,
FFE6,
0012,
FFE3,
0021,
002F,
0038,
0012,
0004,
FFB9,
0016,
FFDD,
001C,
FFF6,
0018,
001A,
001E,
FFEE,
FFF2,
FFD6,
0000,
002E,
0020,
0025,
FFF1,
0014,
FFD7,
FFEC,
000A,
0019,
FFE1,
0006,
FFE7,
FFE7,
FFFF,
0015,
0020,
0019,
FFE3,
FFC3,
FFE9,
FFE8,
FFE5,
FFE1,
0000,
FFFB,
FFE0,
0003,
0005,
FFF3,
FFED,
FFE9,
0003,
0010,
FFDC,
FFE6,
001E,
0024,
FFDE,
FFD6,
FFEC,
0022,
0003,
001D,
0024,
000F,
FFFA,
FFE6,
FFFF,
0010,
FFF6,
001B,
0013,
FFF4,
FFE9,
FFF5,
0011,
000E,
FFE5,
FFC4,
0028,
0012,
FFDF,
FFD0,
FFF1,
0027,
0029,
FFD4,
FFEE,
FFFF,
FFE8,
FFD5,
0006,
FFFB,
0009,
0000,
0002,
FFD2,
FFFA,
FFFE,
FFF3,
0021,
FFF2,
0017,
FFE8,
FFDA,
FFEE,
FFDC,
000E,
0018,
003A,
FFD2,
FFEC,
FFEA,
FFE8,
001B,
FFF7,
FFF5,
0010,
0006,
FFFB,
FFDF,
FFE1,
0020,
FFD2,
FFE3,
FFFE,
FFFA,
FFDD,
FFEC,
FFDE,
000A,
0002,
FFE1,
0026,
0009,
0022,
0007,
FFE0,
0018,
001C,
000F,
0009,
000F,
0014,
0020,
0021,
001B,
FFBB,
0029,
0005,
FFD7,
0006,
0028,
0029,
FFF6,
FFFB,
0015,
0019,
FFE1,
FFDF,
FFF3,
FFFF,
FFCC,
FFEB,
FFEE,
FFF4,
FFEE,
FFFB,
FFE4,
FFFF,
0000,
FFD6,
001C,
FFEE,
000A,
FFD7,
FFE0,
FFC3,
0024,
001F,
0016,
FFCE,
0024,
FFCB,
FFF7,
FFFF,
000E,
FFD2,
000D,
000B,
FFEC,
FFFB,
FFF5,
0018,
FFFA,
0011,
0006,
FFDF,
0008,
0016,
FFFC,
FFD7,
FFEB,
0002,
001C,
000F,
0047,
FFD5,
000A,
001D,
FFE4,
FFCF,
0006,
FFFF,
0000,
FFF2,
FFE2,
FFDB,
FFF4,
000B,
0020,
FFBB,
0010,
0013,
0018,
FFE1,
FFE0,
FFFA,
FFDB,
FFE3,
0018,
FFF8,
FFE6,
FFFF,
FFFE,
0018,
FFF8,
0002,
FFE5,
0005,
FFE6,
FFE0,
0019,
FFE5,
FFF6,
FFE3,
FFC4,
0008,
FFE5,
000A,
0016,
0008,
FFE2,
FFFE,
0010,
FFE2,
000F,
000F,
000C,
0034,
004D,
0008,
001B,
FFE3,
001A,
0019,
FFDF,
0004,
FFEC,
0011,
000F,
FFF3,
0019,
FFD0,
FFC9,
002C,
FFFE,
FFE3,
0002,
FFED,
FFE7,
FFEB,
FFCE,
FFF6,
000A,
0009,
FFE8,
0021,
000F,
003E,
0000,
FFE9,
FFEE,
FFBE,
FFCC,
0003,
FFE5,
0014,
FFED,
002C,
FFEC,
0029,
FFFA,
FFD3,
001E,
FFBD,
0003,
0005,
0011,
FFCC,
FFFB,
FFED,
001D,
FFDE,
000B,
FFCD,
0023,
0013,
000E,
000A,
0034,
FFF0,
FFF4,
000F,
0010,
FFFC,
FFF8,
FFF9,
FFF5,
FFDA,
0001,
FFD5,
0000,
0010,
FFE5,
000D,
FFDC,
000E,
FFDC,
FFC9,
0002,
000E,
0030,
002E,
FFE1,
FFE9,
FFEC,
0016,
FFDE,
0010,
001C,
0025,
FFF7,
0021,
003A,
001F,
0002,
0025,
0017,
FFED,
FFDD,
FFFF,
0004,
0018,
004F,
0025,
FFD0,
0028,
0009,
0026,
001F,
000A,
0010,
FFDD,
FFE5,
FFFC,
0004,
FFDE,
FFDD,
001A,
FFE7,
FFE7,
002C,
0024,
FFD7,
0004,
FFCE,
FFE6,
FFDC,
FFEF,
FFDF,
FFFE,
0022,
FFEA,
0017,
0011,
0013,
0013,
001A,
002B,
FFF5,
000F,
0038,
FFBB,
000A,
002D,
0003,
0009,
0026,
004A,
FFE6,
001E,
FFEE,
001D,
FFF9,
0021,
FFE8,
000A,
FFFE,
0025,
0018,
001B,
FFFD,
000E,
FFE2,
0009,
0000,
002B,
FFEE,
0004,
0016,
FFCF,
FF7E,
FFD7,
002A,
FFE8,
FFFD,
FFDB,
0026,
FFFE,
000A,
FFFA,
FFD5,
FFF4,
000B,
FFF8,
0013,
0003,
FFF1,
FFF5,
000D,
FFDA,
FFED,
0004,
FFDE,
FFFD,
0022,
FFE1,
000E,
0008,
FFE4,
001F,
0006,
0000,
0008,
FFDE,
0027,
FFEA,
FFE9,
001E,
0027,
FFDA,
FFFB,
0005,
0009,
FFF6,
0006,
FF9D,
FFF6,
FFFE,
FFE9,
FFF6,
0006,
FFEC,
0013,
FFD6,
000F,
0012,
FFD8,
FFEE,
0012,
000A,
FFDE,
FFE0,
0025,
FFC8,
000D,
FFFC,
FFDC,
FFF8,
FFEF,
FFCD,
FFE8,
001D,
001A,
FFE9,
FFEC,
0039,
FFE8,
FFC9,
0038,
FFC3,
FFE1,
001C,
FFE6,
0016,
0069,
004E,
000B,
0006,
FFD7,
FFB7,
0021,
000A,
FFDA,
0002,
FFE6,
FFE5,
FFDB,
FFE1,
FFCE,
0024,
FFE7,
000E,
FFCE,
FFEB,
001A,
FFF5,
0000,
000F,
FFDC,
0021,
FFD0,
001A,
0007,
000B,
001D,
000A,
002A,
FFD1,
FFE8,
FFDC,
0017,
0023,
000A,
001B,
000D,
001F,
0018,
001F,
FFED,
FFD2,
0007,
FFEB,
0013,
0009,
0005,
FFFF,
000E,
FFF3,
FFEC,
003F,
0006,
0013,
FFFF,
001E,
002B,
0001,
FFD8,
0016,
0008,
FFF7,
001D,
0016,
FFE4,
001A,
FFE1,
000C,
FFFA,
005D,
FFCD,
FFE7,
FFD3,
0011,
FFDB,
0014,
0003,
FFE0,
0009,
000D,
FFDE,
FFE2,
001A,
FFFD,
FFFB,
FFD0,
0010,
0025,
000E,
FFDF,
FFF5,
0019,
FFCE,
FFE7,
0065,
FFFD,
FFEB,
FFF6,
0027,
002B,
0058,
FFE9,
FFFD,
FFEF,
001F,
FFF4,
FFFF,
0018,
FFB9,
001C,
0001,
0000,
0009,
000A,
0004,
FFDD,
FFE5,
FFFA,
0031,
0028,
FFD4,
FFD6,
FFF2,
0002,
000D,
0005,
FFE0,
FFF5,
0033,
FFFE,
FFF4,
FFE0,
0001,
0026,
0009,
000F,
FFEE,
0008,
003B,
FFF7,
001E,
0013,
0016,
FFFB,
000C,
002D,
FFEF,
0012,
0005,
000F,
FFFD,
0029,
FFD5,
0009,
FFE6,
002A,
0016,
FFDE,
000E,
001C,
0012,
FFF0,
FFF8,
003D,
FFD1,
000A,
FFD8,
FFCC,
FFFD,
0020,
000A,
FFE1,
0014,
0004,
000A,
0002,
000A,
0020,
0002,
000D,
0006,
FFE4,
0006,
0004,
FFF1,
FFF9,
FFE6,
0027,
FFF1,
FFEF,
0003,
001E,
0069,
FFF7,
001F,
000D,
FFE4,
0004,
FFF8,
001C,
000B,
FFFE,
FFED,
FFFA,
0021,
FFFE,
FFEE,
FFFD,
FFF3,
0010,
0016,
001D,
FFF8,
FFEC,
FFE7,
000C,
FFE2,
0007,
0017,
FFFF,
FFD5,
FFE0,
0008,
FFEC,
FFE6,
FFFB,
FFDF,
FFFB,
FFDC,
FFE2,
0023,
FFEF,
FFFE,
0004,
FFD0,
FFF7,
0022,
FFF1,
000E,
FFFB,
FFF4,
0013,
FFF1,
0025,
FFF7,
0016,
0023,
FFD6,
FFF5,
FFFC,
FFE9,
FFDD,
0016,
001B,
FFE6,
0015,
0013,
0018,
FFF8,
FFED,
FFD8,
FFE5,
FFE2,
000A,
FFFA,
FFF2,
FFFC,
FFFD,
FFEB,
FFD5,
FFF2,
000F,
FFEC,
FFEA,
0022,
FFF3,
FFF2,
FFF4,
FFDA,
0015,
FFFF,
FFE3,
FFEB,
FFF3,
FFF0,
0002,
0022,
000C,
FFE4,
0011,
0015,
FFDE,
FFF2,
FFFF,
0024,
0005,
FFEA,
000E,
FFE8,
0022,
FFF0,
FFE3,
FFF1,
0008,
FFF7,
0014,
FFE5,
0009,
000A,
0025,
0017,
000E,
0009,
001A,
000A,
FFF2,
FFEF,
FFE8,
FFFC,
FFE0,
FFE9,
0024,
000C,
001B,
FFED,
FFE6,
FFF4,
0028,
0007,
FFF5,
0006,
FFF2,
0004,
FFE4,
0022,
FFDA,
FFFE,
FFDD,
FFF7,
0016,
FFE8,
FFFA,
FFFF,
000B,
FFE8,
0007,
FFFD,
0012,
0003,
0004,
0009,
FFE5,
0009,
000D,
001C,
FFFA,
0016,
FFF2,
001E,
FFE4,
FFFE,
0003,
0017,
0026,
FFF6,
FFE4,
FFF8,
FFEC,
0020,
FFEC,
000C,
0008,
0007,
000D,
0012,
000C,
001E,
000F,
000A,
001F,
0014,
FFE7,
001F,
0006,
FFFE,
0025,
0004,
FFF1,
001B,
0008,
000B,
0013,
FFE6,
FFDD,
FFEE,
FFE9,
0006,
FFEA,
0006,
FFF4,
FFE3,
0019,
FFFA,
0009,
FFF3,
FFEF,
FFE9,
000C,
0004,
FFEA,
FFDA,
FFE2,
0016,
FFE7,
FFE4,
FFF8,
FFFA,
FFFB,
FFF8,
000F,
0027,
0020,
0000,
000F,
FFF7,
000D,
0010,
FFF3,
FFFC,
0001,
0011,
FFF7,
0020,
FFE7,
FFF9,
FFF2,
FFF2,
FFE1,
002E,
FFD6,
FFE0,
FFF6,
0013,
000C,
FFF5,
0010,
FFDB,
FFE6,
001E,
FFFC,
FFE5,
FFDB,
FFDA,
FFEC,
FFEF,
FFDD,
FFF6,
FFF3,
0021,
FFFB,
0018,
001D,
0022,
0014,
FFFC,
FFE9,
0015,
000C,
0029,
FFD9,
FFE5,
0009,
FFE4,
FFED,
FFF9,
0003,
0013,
FFDC,
0023,
0006,
0029,
0016,
000E,
FFEB,
0012,
000C,
0016,
001D,
0002,
FFF1,
0007,
FFDA,
001A,
FFEE,
001A,
FFF2,
0014,
FFFD,
0008,
0001,
FFF5,
0003,
0015,
FFD5,
FFEF,
0011,
FFDA,
FFD5,
FFF8,
FFCA,
0002,
FFD3,
FFD2,
0025,
0019,
FFD9,
0014,
FFF1,
0019,
000A,
FFF7,
FFF5,
FFEF,
0027,
FFE7,
0009,
FFC1,
0013,
000E,
FFEA,
FFC5,
0016,
0027,
FFD3,
FFD7,
FFFE,
FFE3,
0000,
FFE6,
FFFE,
0003,
001D,
FFE1,
FFE7,
FFCB,
001E,
0002,
0013,
0013,
FFF3,
FFF1,
0019,
FFE6,
FFE9,
003E,
0016,
FFD0,
000E,
000F,
FFDF,
0009,
FFE1,
0030,
FFEF,
FFEE,
0022,
0001,
0013,
0012,
FFCB,
0022,
FFDC,
0004,
FFCA,
FFFA,
FFD8,
FFEE,
FFE1,
FFE6,
0012,
0009,
FFFF,
FFEC,
002C,
FFCF,
FFF6,
0017,
0002,
FFF7,
0023,
FFF8,
000C,
0027,
0025,
0004,
FFED,
0021,
FFE9,
FFD2,
FFD8,
FFEF,
0015,
001E,
FFD1,
FFF2,
0004,
FFF1,
0021,
FFFE,
FFEC,
FFFF,
000D,
FFAC,
001D,
0024,
0014,
FFF1,
FFCB,
0005,
FFE0,
FFF8,
0003,
0031,
FFFB,
0016,
0006,
000A,
000C,
FFE9,
0024,
FFE2,
001C,
0008,
FFE6,
0010,
0014,
FFEF,
FFE8,
FFF8,
0021,
001E,
0019,
FFE8,
0031,
0017,
000B,
0007,
FFE3,
FFD1,
FFF9,
001D,
FFE4,
FFEA,
FFF1,
FFDC,
0015,
FFDF,
0004,
FFE1,
FFF7,
FFD8,
0012,
FFD1,
FFF1,
FFDD,
0014,
FFEC,
000A,
000A,
000B,
FFF7,
0024,
FFF1,
0018,
FFE4,
FFF1,
0011,
FFE3,
FFEF,
001F,
FFF8,
FFD4,
FFEE,
0023,
FFEB,
0027,
FFF8,
0011,
0004,
000C,
FFCA,
FFEF,
0019,
0009,
001E,
FFFC,
0016,
0001,
0016,
FFCE,
FFF8,
0024,
FFF9,
FFDC,
FFA4,
0018,
FFE0,
0011,
002A,
FFF2,
001A,
0009,
FFE1,
0022,
000B,
0002,
FFF4,
0029,
FFE3,
001D,
0016,
FFFB,
FFFA,
000F,
FFFD,
FFE4,
FFFF,
FFE4,
FFD2,
0018,
FFFF,
FFEB,
FFFC,
FFD7,
000C,
FFF8,
FFE9,
FFF4,
0026,
FFF3,
0011,
0012,
FFFB,
0004,
FFC8,
FFC4,
FFEE,
FFD4,
0014,
FFFE,
0005,
0019,
FFFB,
FFF0,
FFED,
0007,
FFDD,
FFEC,
FFDF,
0017,
0017,
0021,
FFF1,
0020,
0031,
0025,
FFEE,
FFF9,
FFCE,
0014,
FFEC,
0023,
0006,
0005,
0004,
FFF5,
FFFA,
FFF9,
000B,
